<pad>	0
<unk>	0
[CLS]	0
[SEP]	0
[MASK]	0
(	0
)	0
,-,.,–,£,€	0
の	-2.86211
、	-3.02934
。	-3.30836
▁	-3.51994
は	-4.02376
が	-4.36947
・	-4.44639
年	-4.54357
に	-4.65908
を	-4.67723
で	-4.84527
と	-4.90455
」	-5.15781
月	-5.29502
「	-5.31335
1	-5.66893
から	-5.68806
2	-5.69943
や	-5.72385
である	-5.75591
も	-5.84122
した	-5.84243
日	-5.86147
3	-5.89361
し	-5.89714
』	-5.98293
として	-6.04065
する	-6.13249
4	-6.14883
では	-6.20828
『	-6.25184
た	-6.38927
5	-6.43004
には	-6.50297
6	-6.576
年に	-6.60712
"	-6.61565
など	-6.63987
7	-6.64744
10	-6.66205
8	-6.70326
▁また	-6.72875
という	-6.74573
された	-6.77665
9	-6.78806
大	-6.7903
第	-6.81313
して	-6.83108
る	-6.84456
▁-	-6.8461
している	-6.85136
な	-6.85601
ス	-6.86927
て	-6.891
人	-6.89698
12	-6.94265
-	-6.95258
ている	-6.9589
日に	-6.97223
その	-6.97948
11	-7.0371
市	-7.04875
による	-7.09937
となった	-7.12019
によって	-7.12075
中	-7.121
により	-7.14017
:	-7.1416
であり	-7.16817
され	-7.17491
▁この	-7.18015
s	-7.18165
であった	-7.20127
一	-7.21127
この	-7.23119
山	-7.25572
町	-7.25961
.	-7.27876
,	-7.28897
ため	-7.32577
本	-7.33769
、「	-7.36647
m	-7.37074
ア	-7.38029
ド	-7.38193
か	-7.38826
名	-7.38928
へ	-7.39395
り	-7.39666
ト	-7.40086
より	-7.40097
となる	-7.40327
ズ	-7.40459
される	-7.40502
回	-7.4102
がある	-7.41391
日本	-7.41477
後	-7.41815
国	-7.4188
上	-7.42478
a	-7.45041
15	-7.47613
まで	-7.4834
川	-7.48544
ク	-7.48824
▁しかし	-7.49149
昭和	-7.49911
ラ	-7.49943
への	-7.50164
20	-7.50445
い	-7.53519
長	-7.5361
新	-7.54249
駅	-7.55946
子	-7.56905
部	-7.5699
されている	-7.57295
ていた	-7.58121
16	-7.59165
だった	-7.5932
カ	-7.59557
性	-7.59793
元	-7.59839
家	-7.59853
月に	-7.60165
的な	-7.60172
17	-7.62204
ナ	-7.62473
において	-7.62647
していた	-7.63016
法	-7.64116
郡	-7.64629
マ	-7.64869
線	-7.6615
者	-7.66769
などの	-7.67285
30	-7.67318
号	-7.68292
/	-7.68802
▁『	-7.69221
にも	-7.69552
および	-7.70167
道	-7.70504
島	-7.70665
水	-7.71192
分	-7.71411
同	-7.71779
18	-7.72611
高	-7.73014
三	-7.7329
リ	-7.73452
ら	-7.73544
タ	-7.74257
的	-7.74697
田	-7.76432
戦	-7.76637
でも	-7.76914
ル	-7.77376
14	-7.7751
村	-7.78588
く	-7.78655
数	-7.78688
となり	-7.78771
東	-7.79047
小	-7.79701
型	-7.79748
会	-7.79781
西	-7.80004
下	-7.80337
前	-7.80857
13	-7.81259
地	-7.81479
ム	-7.81955
大学	-7.82636
b	-7.83049
コ	-7.83066
内	-7.8322
化	-7.83265
み	-7.843
c	-7.84313
時	-7.84337
にある	-7.84564
年には	-7.85013
南	-7.85446
生	-7.85575
つ	-7.86465
お	-7.87183
▁なお	-7.87325
デ	-7.87752
ノ	-7.88368
位	-7.88801
バ	-7.89729
約	-7.89936
平成	-7.89965
州	-7.90181
における	-7.9072
神	-7.91215
ダ	-7.91299
き	-7.91713
サ	-7.92485
った	-7.93103
フ	-7.93633
手	-7.94622
北	-7.95402
オ	-7.95615
▁その後	-7.96
レ	-7.96012
形	-7.97374
となっている	-7.97636
映画	-7.97658
ており	-7.97932
=	-7.98898
f	-7.99611
エ	-7.99761
年から	-8.00023
城	-8.00044
t	-8.00131
王	-8.00361
ロ	-8.00482
d	-8.00723
シ	-8.00773
25	-8.01472
式	-8.01824
系	-8.02047
放送	-8.02518
等	-8.02605
作品	-8.02614
19	-8.02852
こと	-8.03473
マン	-8.04472
にて	-8.05507
日本の	-8.05751
代	-8.0606
二	-8.06205
全	-8.06264
とは	-8.06629
物	-8.0671
原	-8.06943
イ	-8.07689
東京	-8.0821
e	-8.08384
目	-8.0841
野	-8.08427
金	-8.09047
n	-8.09609
について	-8.09655
語	-8.09956
▁「	-8.10315
軍	-8.10487
後に	-8.11158
用	-8.1142
木	-8.11571
区	-8.11913
ティ	-8.12033
文	-8.12237
21	-8.1266
リー	-8.12737
24	-8.12801
力	-8.12875
す	-8.13294
石	-8.1366
ガ	-8.13829
外	-8.14112
キ	-8.14171
勝	-8.14572
ニ	-8.14672
また	-8.14731
ザ	-8.15524
g	-8.15708
ジ	-8.15745
光	-8.16026
寺	-8.16804
p	-8.17048
があり	-8.17743
世界	-8.1799
う	-8.18422
社	-8.18552
正	-8.18573
ン	-8.18853
海	-8.18874
チ	-8.19129
行	-8.19636
作	-8.19647
ない	-8.19693
22	-8.19756
平	-8.20066
点	-8.20076
地域	-8.2015
ミ	-8.20543
機	-8.20644
学	-8.21628
r	-8.21925
だ	-8.21965
ディ	-8.2199
車	-8.22174
ブ	-8.22491
23	-8.2282
公	-8.22843
現	-8.22924
こ	-8.23112
x	-8.23891
所	-8.24036
見	-8.24098
ツ	-8.24608
いた	-8.25745
のみ	-8.26347
曲	-8.26404
って	-8.26434
グ	-8.26768
県	-8.26796
事	-8.26822
時間	-8.27078
さ	-8.2727
世	-8.27355
活動	-8.27381
28	-8.27451
ネ	-8.27486
局	-8.27727
万	-8.27987
版	-8.28374
h	-8.28464
面	-8.28504
27	-8.292
26	-8.29215
ゲーム	-8.29242
旧	-8.29369
とする	-8.29422
出	-8.29554
シリーズ	-8.29866
明治	-8.30111
パ	-8.30593
、『	-8.30716
鉄道	-8.30829
チーム	-8.31207
▁"	-8.31878
及び	-8.32415
プ	-8.32497
場	-8.32583
和	-8.32623
メ	-8.32848
書	-8.32965
」「	-8.32989
に対して	-8.33103
体	-8.338
k	-8.33812
立	-8.34561
ハ	-8.34665
両	-8.34675
度	-8.34698
できる	-8.3477
モ	-8.35124
になった	-8.35202
つの	-8.35254
とともに	-8.35477
番組	-8.35487
テ	-8.35777
話	-8.35779
馬	-8.35896
イン	-8.36334
29	-8.36345
各	-8.36512
明	-8.36591
音楽	-8.36664
無	-8.36815
j	-8.3682
間	-8.36989
人の	-8.37619
不	-8.37743
義	-8.37749
シュ	-8.37878
v	-8.38181
期	-8.38241
を持つ	-8.38367
ウ	-8.3852
▁その	-8.39154
セ	-8.3931
風	-8.39448
ある	-8.39568
になる	-8.39817
l	-8.39925
研究	-8.40018
とも	-8.40182
i	-8.40354
バー	-8.40593
選手	-8.40713
w	-8.40723
開発	-8.40825
重	-8.40835
ビ	-8.4167
橋	-8.42875
カー	-8.43043
バス	-8.43238
現在の	-8.43765
頭	-8.43845
台	-8.43865
級	-8.44039
船	-8.4417
代表	-8.44252
同年	-8.44484
すると	-8.44753
アメリカ	-8.44845
ケ	-8.44875
事業	-8.44883
美	-8.45511
国際	-8.45523
ま	-8.45719
と共に	-8.4589
トン	-8.45948
賞	-8.4606
監督	-8.46216
と呼ばれる	-8.46271
宮	-8.46396
多くの	-8.46403
口	-8.46494
教育	-8.46549
リーグ	-8.46906
白	-8.46941
については	-8.47595
o	-8.47642
または	-8.47764
当時	-8.48244
種	-8.48502
ラー	-8.48582
着	-8.48585
50	-8.49085
的に	-8.49114
プロ	-8.49188
31	-8.49198
流	-8.50523
に対する	-8.50802
ゴ	-8.50945
都市	-8.51196
アルバム	-8.51309
y	-8.51514
地区	-8.51592
権	-8.51877
文化	-8.519
気	-8.52189
学校	-8.52197
谷	-8.52498
氏	-8.52579
100	-8.52748
め	-8.52799
心	-8.52986
システム	-8.53079
天	-8.53233
方	-8.53372
室	-8.53384
しており	-8.53388
門	-8.53563
成	-8.5366
初	-8.53768
年間	-8.54157
サン	-8.54199
地方	-8.54225
試合	-8.54285
安	-8.54336
科	-8.54506
40	-8.54518
されていた	-8.54637
問題	-8.54907
通	-8.55255
ボ	-8.55532
屋	-8.55555
を行う	-8.55694
次	-8.55768
ロー	-8.55999
直	-8.56116
▁これは	-8.56466
音	-8.57003
ラン	-8.57177
コン	-8.57179
グループ	-8.57256
主	-8.57393
アル	-8.57437
中国	-8.57689
さらに	-8.57797
フランス	-8.57813
アン	-8.5793
ター	-8.57969
テレビ	-8.58191
星	-8.58244
事件	-8.58432
他の	-8.58673
院	-8.60027
色	-8.6017
▁同年	-8.60305
関係	-8.60364
館	-8.60446
ヒ	-8.60478
cm	-8.60666
に関する	-8.60777
ドイツ	-8.60818
ために	-8.60868
計画	-8.60922
といった	-8.60992
ヤ	-8.61344
スト	-8.6149
シー	-8.61522
km	-8.61949
番	-8.61957
信	-8.62268
られた	-8.6281
ように	-8.62888
施設	-8.63104
発	-8.63348
があった	-8.63972
花	-8.64106
情報	-8.64332
中央	-8.64757
制	-8.64761
派	-8.64916
別	-8.65127
ことから	-8.65502
朝	-8.65671
真	-8.65782
先	-8.66097
組織	-8.66405
日から	-8.66489
としては	-8.66877
大会	-8.66933
ず	-8.67021
ことを	-8.67758
会社	-8.68089
座	-8.68192
論	-8.6827
店	-8.68376
女	-8.68394
社会	-8.68518
実	-8.68551
u	-8.69043
技術	-8.69065
～	-8.69158
ニー	-8.69193
政	-8.69221
女性	-8.69294
巻	-8.69321
ながら	-8.69398
モデル	-8.69928
む	-8.70019
ー	-8.70462
マー	-8.70499
スター	-8.70742
ではなく	-8.7086
だが	-8.71062
戦争	-8.71326
特に	-8.71382
!	-8.7144
'	-8.71604
時に	-8.71775
歌	-8.72263
▁ただし	-8.72291
対	-8.7235
役	-8.72428
総	-8.72474
井	-8.72568
センター	-8.72572
男	-8.72598
ポ	-8.72726
ち	-8.72851
あ	-8.72867
出身	-8.72876
を経て	-8.72926
丸	-8.73075
ほか	-8.73075
史	-8.73319
ソ	-8.73359
官	-8.73494
攻撃	-8.7353
機能	-8.7365
のため	-8.73955
歳	-8.73971
それ	-8.74224
クラブ	-8.74713
江	-8.74966
シーズン	-8.75064
運動	-8.75118
経済	-8.75483
所属	-8.75706
入	-8.75839
大きな	-8.75871
を行った	-8.76115
リン	-8.76168
とされる	-8.76171
清	-8.762
もある	-8.76219
え	-8.76255
年まで	-8.76267
のために	-8.76408
ものの	-8.76679
兵	-8.76745
ほど	-8.76778
わ	-8.77108
▁第	-8.77127
を受け	-8.77131
いる	-8.77391
▁さらに	-8.77632
古	-8.77713
五	-8.78597
尾	-8.78628
ワ	-8.78679
状態	-8.78705
株式会社	-8.78813
四	-8.79187
後の	-8.79245
とした	-8.7927
させた	-8.79546
組	-8.79549
イギリス	-8.80023
ベ	-8.8016
治	-8.80587
武	-8.80794
エル	-8.80926
記録	-8.81049
のうち	-8.81104
条	-8.81105
定	-8.81268
円	-8.81411
ギ	-8.81668
を含む	-8.81781
じ	-8.81949
▁そして	-8.82105
他	-8.82309
通り	-8.82327
させる	-8.82467
校	-8.82488
シングル	-8.82561
英	-8.82686
多	-8.82699
管理	-8.82997
ナー	-8.83011
その後	-8.83017
ことが	-8.83059
っている	-8.8323
有	-8.83256
久	-8.83534
よりも	-8.83959
月には	-8.84014
御	-8.84168
大阪	-8.84181
路線	-8.84191
すること	-8.84209
場合	-8.8422
ことで	-8.84492
吉	-8.84539
品	-8.84612
車両	-8.84812
ファ	-8.84917
領	-8.85341
のような	-8.8544
あるいは	-8.85615
こう	-8.85847
ベル	-8.85936
愛	-8.86073
バンド	-8.86086
60	-8.86154
例	-8.86376
母	-8.86424
企業	-8.86509
▁2010	-8.86607
構造	-8.86622
類	-8.86771
したが	-8.86936
群	-8.86948
沢	-8.86963
へと	-8.87059
アー	-8.87106
全国	-8.87298
時代	-8.87402
サービス	-8.87653
松	-8.87972
▁the	-8.88035
▁of	-8.88115
当時の	-8.88418
生活	-8.88542
ペ	-8.88564
調査	-8.88674
日には	-8.88804
黒	-8.88891
側	-8.88958
ファン	-8.89048
よう	-8.89163
国家	-8.89187
政府	-8.89292
雄	-8.89293
中に	-8.89445
ゲ	-8.89486
ピ	-8.89522
販売	-8.89561
んだ	-8.89591
女子	-8.8961
空	-8.89668
民	-8.89826
宗	-8.8983
ソン	-8.89913
艦	-8.90144
林	-8.90205
親	-8.90354
食	-8.90539
協会	-8.90544
ジャ	-8.90936
春	-8.91032
一部	-8.91457
足	-8.91477
ダー	-8.91547
道路	-8.91637
八	-8.91962
z	-8.92113
様々な	-8.92461
ヴィ	-8.92511
岩	-8.92522
表	-8.9259
建設	-8.92678
ビル	-8.92902
津	-8.93025
合	-8.93106
党	-8.93198
自	-8.93392
以上	-8.93613
の中で	-8.93642
敵	-8.93689
優勝	-8.93706
〜	-8.9371
相	-8.93932
人が	-8.94003
レン	-8.9413
量	-8.94208
葉	-8.94474
小学校	-8.94628
説	-8.94648
隊	-8.94904
高校	-8.95075
シャ	-8.95308
身	-8.95309
半	-8.95358
なかった	-8.95364
第一	-8.95366
▁2011	-8.95588
字	-8.95831
生産	-8.96249
千	-8.96334
記	-8.9636
制作	-8.96477
を受けた	-8.96589
▁2016	-8.96661
米	-8.96688
▁2012	-8.96731
聖	-8.96756
々	-8.96833
非	-8.9735
▁2014	-8.97432
ホ	-8.97601
されており	-8.98007
▁2015	-8.98063
リング	-8.98094
レイ	-8.981
大正	-8.98264
▁2009	-8.98298
土	-8.983
団体	-8.98337
▁2017	-8.98443
業	-8.98791
戦闘	-8.98832
連	-8.98864
ヨーロッパ	-8.98981
ヌ	-8.99079
80	-8.99093
&	-8.99241
太	-8.99532
スポーツ	-8.9965
the	-8.99662
根	-8.99664
▁2008	-8.99722
環境	-8.99731
タイ	-8.99924
であったが	-8.99949
カード	-9.00165
においては	-9.00274
fc	-9.00385
デビュー	-9.00506
知	-9.00533
広	-9.00566
製	-9.00583
高等学校	-9.00598
ロン	-9.006
再び	-9.00664
▁2013	-9.00665
場所	-9.00678
さん	-9.00692
父	-9.00833
カル	-9.0091
都	-9.01013
になっている	-9.01018
中学校	-9.01058
夫	-9.01418
特別	-9.01496
出場	-9.01512
委員会	-9.01615
を務めた	-9.01628
人物	-9.01745
左	-9.01834
士	-9.01935
設計	-9.01981
角	-9.02022
港	-9.02022
達	-9.02086
師	-9.02089
ガー	-9.021
電	-9.02124
ば	-9.02404
職	-9.02413
ヴァ	-9.0258
ものである	-9.02813
▁2007	-9.02859
にあった	-9.02962
波	-9.03049
だけ	-9.03157
湖	-9.03458
員	-9.03473
新しい	-9.03576
▁2018	-9.03577
オー	-9.03642
赤	-9.03743
利	-9.03758
レース	-9.03826
藩	-9.03912
教	-9.04325
発売	-9.04549
制度	-9.04567
航空	-9.04651
再	-9.04858
基	-9.04858
教会	-9.04907
戸	-9.04946
0	-9.04982
になり	-9.0517
エン	-9.05172
里	-9.05217
火	-9.05225
mm	-9.0523
ジョン	-9.05252
死	-9.05284
されて	-9.05327
人間	-9.05634
ッ	-9.05935
ぎ	-9.06016
最初の	-9.06027
”	-9.06054
政治	-9.06074
器	-9.06114
徳	-9.06116
弾	-9.06348
のように	-9.06367
使用	-9.06425
それぞれ	-9.06484
リア	-9.06487
海軍	-9.0649
右	-9.06493
之	-9.06561
団	-9.0696
イベント	-9.07161
▁2019	-9.07242
同じ	-9.07296
横	-9.0736
イタリア	-9.07576
そして	-9.07692
キャラクター	-9.07919
銀行	-9.07964
永	-9.08001
ランド	-9.0809
カン	-9.08243
省	-9.08343
誌	-9.08524
良	-9.0866
路	-9.08748
初の	-9.0875
総合	-9.08788
ること	-9.08907
産業	-9.08951
ような	-9.09133
球	-9.09276
忠	-9.0937
生まれ	-9.09475
ホーム	-9.09638
作戦	-9.09694
>	-9.09716
機関	-9.09927
ロシア	-9.09993
70	-9.10075
のある	-9.10095
cd	-9.10266
企画	-9.1035
楽	-9.10448
ご	-9.10488
th	-9.1074
▁2	-9.10849
アメリカ合衆国	-9.1091
ハイ	-9.10931
参加	-9.10948
以降	-9.11042
しない	-9.11133
年度	-9.11154
集	-9.1136
よ	-9.11371
ビー	-9.11637
状況	-9.11654
熱	-9.11715
教授	-9.11746
▁2006	-9.11866
これは	-9.1188
に対し	-9.12007
パー	-9.12058
デザイン	-9.12125
編成	-9.12136
節	-9.12288
開催	-9.12412
交通	-9.12413
たち	-9.12437
月から	-9.1249
メンバー	-9.12565
当	-9.12678
サー	-9.12679
感	-9.12744
公園	-9.12795
一般	-9.12828
などで	-9.12838
フィ	-9.12884
させ	-9.12919
鉄	-9.12933
っていた	-9.13032
アニメ	-9.13197
ガン	-9.13216
を行い	-9.13284
最も	-9.13305
副	-9.1336
契約	-9.13423
ヘ	-9.13436
表現	-9.13536
今	-9.13658
図	-9.1366
翌	-9.13676
層	-9.13895
最大	-9.14014
結果	-9.14038
神社	-9.14085
独立	-9.14105
紙	-9.14155
部隊	-9.14318
六	-9.14333
▁a	-9.14466
自動車	-9.14554
部分	-9.14656
せ	-9.147
スーパー	-9.14825
守	-9.14843
▁そのため	-9.14929
エンジン	-9.15011
悪	-9.15183
製作	-9.15576
られる	-9.1599
京都	-9.16016
薬	-9.16064
を中心に	-9.16133
製造	-9.1615
命	-9.16156
堂	-9.16263
によると	-9.1631
上の	-9.16327
によれば	-9.1642
日まで	-9.16494
としている	-9.16557
タン	-9.16606
取り	-9.1664
主に	-9.16688
ところ	-9.16785
st	-9.16807
ic	-9.16832
マル	-9.16939
章	-9.17003
バン	-9.17074
チャ	-9.1709
公開	-9.17156
英語	-9.17181
シン	-9.17189
声	-9.17316
森	-9.17514
あり	-9.17533
会議	-9.17629
進	-9.17666
製品	-9.1776
北海道	-9.17791
たい	-9.17847
ブル	-9.17856
試験	-9.17901
はこの	-9.17908
病	-9.17918
パリ	-9.18023
とし	-9.18103
パン	-9.18217
jr	-9.18241
族	-9.18316
年代	-9.18422
これ	-9.18453
れ	-9.18631
の一部	-9.1889
ライブ	-9.18991
ジェ	-9.18995
宇宙	-9.19214
ドラマ	-9.19232
ではない	-9.19261
そう	-9.1927
200	-9.19296
ね	-9.19299
政策	-9.19359
男性	-9.19413
コー	-9.1973
列車	-9.19765
属	-9.19799
経	-9.19959
利用	-9.20088
などが	-9.20121
学生	-9.20162
ゼ	-9.20223
文字	-9.20336
▁日本	-9.20418
夜	-9.20664
戦で	-9.20666
ラジオ	-9.20734
2000	-9.2081
」、「	-9.20838
データ	-9.20867
個	-9.20883
運転	-9.20903
工場	-9.20989
七	-9.21028
け	-9.21253
35	-9.21341
状	-9.21569
経営	-9.21588
ぶ	-9.21737
からは	-9.21842
に位置する	-9.22031
何	-9.22067
保	-9.22389
45	-9.2242
装置	-9.22503
できない	-9.22842
ルー	-9.22849
太郎	-9.22908
区間	-9.2291
坂	-9.22967
京	-9.2307
評価	-9.23142
られ	-9.23235
が行われた	-9.23244
担当	-9.23266
言語	-9.23347
来	-9.23357
彼の	-9.23519
地球	-9.23624
出身の	-9.23708
階	-9.23758
陸軍	-9.23814
個人	-9.23886
90	-9.24029
モン	-9.24037
彼は	-9.24053
開	-9.2409
▁一方	-9.24109
効果	-9.24268
変更	-9.24339
大統領	-9.24453
世紀	-9.24506
質	-9.24535
輸送	-9.24577
al	-9.24628
ひ	-9.24708
産	-9.24901
開始	-9.24982
計	-9.24988
に伴い	-9.2499
値	-9.24991
付	-9.2503
等の	-9.25053
警察	-9.25167
能力	-9.252
▁2005	-9.25391
であるが	-9.25408
加	-9.25429
秒	-9.2548
政権	-9.25685
草	-9.25758
異	-9.25869
物語	-9.26168
と同じ	-9.26189
形式	-9.26497
そ	-9.26531
er	-9.26606
小説	-9.26625
デン	-9.26836
前に	-9.26838
段	-9.26843
タイトル	-9.26928
工業	-9.27008
行動	-9.27041
運営	-9.27061
以下の	-9.27079
板	-9.27133
部門	-9.27178
青	-9.27191
条件	-9.27213
玉	-9.27485
差	-9.27543
フル	-9.27576
南部	-9.27579
最高	-9.27616
以来	-9.27748
ドル	-9.27895
ことができる	-9.27953
バル	-9.27975
ハン	-9.27977
画	-9.28033
ライン	-9.28052
スタ	-9.28141
超	-9.28161
発表	-9.28208
アジア	-9.28244
崎	-9.2833
しか	-9.28439
未	-9.28461
乗	-9.28473
ジュ	-9.28544
通信	-9.2856
登録	-9.28592
反	-9.28652
私	-9.28703
ハー	-9.28708
ネット	-9.28826
雑誌	-9.28828
アイ	-9.28874
おり	-9.28959
界	-9.29002
500	-9.29025
方法	-9.29137
内の	-9.2917
上で	-9.29175
||	-9.29218
自身の	-9.2931
志	-9.29315
ロック	-9.29338
便	-9.29399
系統	-9.29468
岡	-9.29505
秀	-9.29638
陽	-9.29657
動物	-9.29719
だったが	-9.29762
国道	-9.29774
満	-9.29842
諸	-9.29883
in	-9.30096
病院	-9.30221
龍	-9.30227
細胞	-9.30252
帯	-9.30341
藤	-9.30431
撮影	-9.30468
像	-9.30651
国内	-9.30808
支援	-9.3087
第二	-9.30888
中の	-9.30889
映像	-9.30892
ta	-9.30993
運用	-9.31044
勝利	-9.31098
48	-9.31196
主義	-9.31199
河	-9.31261
自然	-9.31461
枠	-9.31554
蔵	-9.31598
レス	-9.31741
名は	-9.31803
遠	-9.31822
家族	-9.31958
工事	-9.32009
フェ	-9.32034
豊	-9.32051
建築	-9.32122
が多い	-9.32199
インド	-9.32268
キー	-9.32269
妻	-9.32296
事故	-9.32309
ダム	-9.3247
夏	-9.3249
ると	-9.32536
le	-9.32621
樹	-9.32637
公演	-9.32672
伝	-9.32675
ど	-9.32707
クラス	-9.32723
作曲	-9.3308
us	-9.33291
将軍	-9.33378
にあたる	-9.33524
なく	-9.33588
を受けて	-9.33615
re	-9.33686
時代の	-9.34141
ようになった	-9.34141
人気	-9.3417
店舗	-9.34262
司	-9.34363
ライ	-9.34484
to	-9.3451
最後の	-9.34603
血	-9.34612
台湾	-9.34622
以上の	-9.34635
越	-9.3468
選挙	-9.34682
案	-9.34697
調	-9.34774
▁m	-9.34843
構成	-9.34852
2010	-9.35028
び	-9.35131
ローマ	-9.35265
トップ	-9.35296
歴史	-9.35305
“	-9.35312
ていたが	-9.35488
用の	-9.35655
俳優	-9.35718
トリ	-9.35778
源	-9.35789
時の	-9.35805
ていない	-9.35882
率	-9.3591
ジー	-9.35974
飛行	-9.36011
とされている	-9.36061
などを	-9.36141
以下	-9.36166
羽	-9.36341
フリー	-9.36397
絵	-9.3645
以外の	-9.36599
▁3	-9.36606
関	-9.36617
っ	-9.36636
設定	-9.3669
自由	-9.36729
メートル	-9.36745
竹	-9.36823
人口	-9.36831
素	-9.36848
祭	-9.36938
砲	-9.37028
居	-9.37078
骨	-9.37131
強	-9.37188
科学	-9.3729
せん	-9.37323
演奏	-9.37429
在	-9.37552
+	-9.37575
為	-9.37589
高い	-9.37601
最	-9.37622
どう	-9.37693
の一つ	-9.37717
ニュー	-9.37724
指定	-9.37741
ツアー	-9.37744
艦隊	-9.3778
表記	-9.3778
展開	-9.37831
が多く	-9.37873
郷	-9.37884
方式	-9.37995
スタジオ	-9.38109
ック	-9.3813
はその	-9.38238
レー	-9.38482
予定	-9.38505
研究所	-9.38547
勢力	-9.3869
移動	-9.38714
ん	-9.3903
方面	-9.39035
▁同	-9.39082
兼	-9.39086
走	-9.39292
向け	-9.39345
▁17	-9.39463
初代	-9.39515
跡	-9.39561
席	-9.39565
q	-9.39587
秋	-9.39757
ガス	-9.39851
重要な	-9.39878
舞台	-9.39917
設置	-9.39998
漫画	-9.40032
ニューヨーク	-9.40052
韓国	-9.40196
せず	-9.40256
のための	-9.40347
編	-9.4036
新聞	-9.40389
スペイン	-9.40603
されていない	-9.40649
時期	-9.40692
現在は	-9.40758
塩	-9.40766
幸	-9.40853
もあり	-9.4087
かつて	-9.40906
-1	-9.40967
現在	-9.41134
批判	-9.41139
キン	-9.4114
陣	-9.41183
対応	-9.41187
作家	-9.41227
卒業	-9.41288
万円	-9.41397
ほぼ	-9.414
渡	-9.41413
ステージ	-9.41505
32	-9.41586
九州	-9.41636
市民	-9.41665
ユ	-9.4174
毛	-9.41807
いて	-9.41898
酒	-9.41922
▁2004	-9.42006
低	-9.42042
トラ	-9.42059
36	-9.42147
市立	-9.42243
家の	-9.42251
ing	-9.42373
佐	-9.42407
条約	-9.42432
nhk	-9.42454
br	-9.42614
38	-9.42954
入り	-9.43034
ーン	-9.43097
整備	-9.43169
たが	-9.43214
でもある	-9.43241
増	-9.43271
ザー	-9.43326
▁彼は	-9.43345
十	-9.43391
ma	-9.43403
ダン	-9.43421
ホール	-9.43571
客	-9.43697
街	-9.43699
していたが	-9.43807
ふ	-9.43834
輪	-9.43879
彦	-9.43889
国民	-9.43909
転	-9.44014
浦	-9.44019
残	-9.44066
営業	-9.44129
持	-9.44195
帝	-9.44264
自ら	-9.44316
新たな	-9.44363
オブ	-9.44368
2008	-9.44414
理	-9.44474
ット	-9.44541
ポイント	-9.44562
なる	-9.44672
市場	-9.44681
宝	-9.4469
2011	-9.44744
北部	-9.44779
張	-9.44946
2007	-9.44975
プロジェクト	-9.45019
出演	-9.45023
2009	-9.45139
搭載	-9.45181
帝国	-9.45184
雲	-9.45225
込み	-9.45233
行政	-9.4529
ッツ	-9.45311
ノー	-9.45314
実験	-9.45363
トゥ	-9.45448
メディア	-9.45476
ロンドン	-9.45489
se	-9.45491
目的	-9.4552
内容	-9.45557
言	-9.45569
学者	-9.45575
こともある	-9.45703
裏	-9.45747
少年	-9.45749
初めて	-9.45825
管	-9.45857
横浜	-9.45878
na	-9.45881
仁	-9.45917
▁これらの	-9.45967
海外	-9.46012
香	-9.46106
幅	-9.46114
宿	-9.46187
ろ	-9.46192
ことがある	-9.46209
後は	-9.46273
人は	-9.46323
kg	-9.46368
助	-9.46387
極	-9.46393
空港	-9.46413
名古屋	-9.46446
場合は	-9.46502
庁	-9.46563
これを	-9.46582
市の	-9.46592
軍事	-9.4664
頼	-9.46783
反応	-9.46798
統一	-9.46805
銀	-9.46816
元年	-9.4688
周	-9.46904
出版	-9.46964
→	-9.46984
変	-9.4708
ch	-9.47083
自分の	-9.47195
漢	-9.47326
かつ	-9.47653
敗	-9.47689
詩	-9.47726
なら	-9.47759
作業	-9.47777
集団	-9.47782
▁2000	-9.47786
表示	-9.47788
▁※	-9.47801
現代	-9.47809
▁特に	-9.47847
de	-9.4786
ed	-9.47873
共和国	-9.47948
チェ	-9.47966
てきた	-9.47981
期間	-9.48028
技	-9.48036
電子	-9.48044
行為	-9.48051
するため	-9.48128
電気	-9.48135
la	-9.48139
劇場	-9.48163
するために	-9.48178
理論	-9.48289
好	-9.48364
浜	-9.48371
発行	-9.48414
福	-9.48422
ことは	-9.48468
列	-9.48487
鳥	-9.48552
タイム	-9.48579
解	-9.48621
額	-9.48652
テン	-9.48715
紀	-9.48773
が存在する	-9.4878
常	-9.48806
女優	-9.48815
37	-9.48929
芸術	-9.48936
を見	-9.48955
経験	-9.49455
サイト	-9.49696
楽曲	-9.49809
付け	-9.4985
引	-9.49875
天皇	-9.49893
年より	-9.49984
夢	-9.50016
能	-9.50088
メーカー	-9.50101
バック	-9.50164
』『	-9.50178
意	-9.50207
業務	-9.50297
費	-9.50318
代目	-9.50334
造	-9.50391
co	-9.5041
これらの	-9.50419
料理	-9.50519
ニュース	-9.50537
ホテル	-9.50597
湾	-9.50706
割	-9.50716
瀬	-9.50813
2006	-9.50946
隆	-9.50959
2012	-9.51001
会長	-9.51071
33	-9.51139
全て	-9.5116
数は	-9.51245
興	-9.5131
マイ	-9.51321
記念	-9.51324
植物	-9.51373
選	-9.51388
ブラ	-9.51508
ぐ	-9.51529
片	-9.51531
とき	-9.51678
オリンピック	-9.51736
共同	-9.51752
オリジナル	-9.51826
よく	-9.51897
時には	-9.5193
決定	-9.51939
オーストラリア	-9.51958
文学	-9.51991
観測	-9.52024
泉	-9.52032
もので	-9.52067
弘	-9.52121
商	-9.52189
処理	-9.52197
雨	-9.52221
ウィ	-9.52322
仏	-9.5249
議会	-9.52522
軽	-9.52706
隻	-9.52751
ロス	-9.52845
者が	-9.52861
形態	-9.5293
dvd	-9.52932
拡大	-9.53016
華	-9.53045
サイ	-9.53066
ブランド	-9.53127
にとって	-9.53171
メイン	-9.53185
池	-9.53234
防衛	-9.53261
にかけて	-9.533
程度	-9.53336
かん	-9.53379
ko	-9.5342
近	-9.53497
縁	-9.53647
東京都	-9.53739
を行っている	-9.53765
野球	-9.53805
tv	-9.5381
基準	-9.53826
異なる	-9.53869
府	-9.53876
▁c	-9.53881
リスト	-9.53893
体制	-9.53908
統合	-9.53927
対象	-9.53952
喜	-9.53969
を持ち	-9.53971
せい	-9.53972
魚	-9.53993
動	-9.54014
百	-9.54098
34	-9.54102
男子	-9.54108
難	-9.54141
順	-9.54189
任	-9.54202
革命	-9.54205
兄弟	-9.54223
引き	-9.54319
かい	-9.54324
洋	-9.54327
300	-9.54334
▁in	-9.5438
プレイ	-9.54409
若	-9.54522
者は	-9.54603
するなど	-9.54698
コース	-9.54717
壁	-9.54735
機構	-9.54742
セット	-9.54768
内に	-9.54907
te	-9.54928
直接	-9.5496
霊	-9.5496
端	-9.55012
比	-9.55067
商品	-9.55107
王国	-9.5514
ビデオ	-9.55142
写真	-9.55169
指導	-9.5522
制限	-9.5536
配信	-9.55361
専門	-9.55361
ヴェ	-9.55395
連載	-9.55412
上に	-9.5544
ヴ	-9.55451
特	-9.55478
ヨ	-9.55583
関連	-9.55597
レコード	-9.55612
核	-9.55638
単	-9.55643
ベスト	-9.55716
味	-9.55839
を務める	-9.55847
られている	-9.55861
していない	-9.55862
社長	-9.55864
際	-9.56098
ワン	-9.56121
選手権	-9.56146
存在	-9.56151
競技	-9.56183
バイ	-9.56187
エネルギー	-9.56207
大型	-9.56285
▁2003	-9.56427
00	-9.56524
格	-9.5666
園	-9.5675
変化	-9.56758
域	-9.56782
平均	-9.56805
同盟	-9.56847
得点	-9.569
連続	-9.56919
んで	-9.56979
雪	-9.5701
服	-9.57138
断	-9.57251
民族	-9.57296
枚	-9.57309
39	-9.57312
令	-9.57352
シーン	-9.57362
2014	-9.57407
複数の	-9.57453
スキー	-9.57485
▁4	-9.57496
no	-9.57534
学園	-9.57964
首相	-9.58034
観	-9.58037
説明	-9.5804
建	-9.58116
▁2020	-9.58137
それを	-9.58339
図書館	-9.58422
▁de	-9.58497
ソ連	-9.58502
カップ	-9.58604
することで	-9.58627
ディー	-9.58699
かった	-9.58727
盤	-9.58789
取	-9.5884
完成	-9.58897
ユニット	-9.58966
歌手	-9.58981
伊	-9.58989
2013	-9.59128
向	-9.59183
米国	-9.59186
合併	-9.59244
en	-9.59246
候補	-9.59306
el	-9.5931
矢	-9.59319
空間	-9.59326
万人	-9.59376
西部	-9.59561
精神	-9.59573
クス	-9.59581
終了	-9.59642
協力	-9.5969
非常に	-9.597
勢	-9.59707
トー	-9.59713
ドゥ	-9.59823
勝ち	-9.59866
項	-9.59901
▁km	-9.59966
仕様	-9.60075
▁b	-9.60078
報道	-9.60098
倉	-9.60115
べ	-9.6012
土地	-9.60179
2015	-9.60202
運行	-9.60374
奥	-9.60501
実施	-9.60567
兄	-9.60591
me	-9.60598
出し	-9.6061
it	-9.60656
初期	-9.6069
軍の	-9.60727
サッカー	-9.60779
▁s	-9.60779
障害	-9.60904
セル	-9.60929
交換	-9.60945
首	-9.60976
頃	-9.61011
保護	-9.61036
犬	-9.61038
プログラム	-9.61052
クラ	-9.61188
はない	-9.61202
遊	-9.61422
形で	-9.6149
国立	-9.61519
系の	-9.61522
コーナー	-9.61547
打	-9.61583
景	-9.61626
ポーランド	-9.61647
持ち	-9.61728
子供	-9.61783
会員	-9.61796
したため	-9.61854
日本人	-9.61897
軌道	-9.61943
者の	-9.62112
ショー	-9.62135
全ての	-9.62137
ドン	-9.62223
▁このため	-9.6227
提供	-9.623
分類	-9.62391
セン	-9.62427
2005	-9.62436
メン	-9.62501
命令	-9.62536
末	-9.62693
ジョ	-9.62705
次の	-9.62749
もしくは	-9.62946
収録	-9.62955
工	-9.63033
名前	-9.63148
筋	-9.63151
億	-9.63212
ps	-9.63317
カナダ	-9.63433
大臣	-9.63578
の戦い	-9.63586
結婚	-9.63629
郎	-9.6363
医療	-9.63689
農業	-9.63705
%	-9.63716
ro	-9.63741
弁	-9.63808
44	-9.63848
規定	-9.63866
間の	-9.63935
シティ	-9.63974
デル	-9.64004
▁f	-9.64042
を示す	-9.64049
える	-9.64079
娘	-9.64103
を通じて	-9.64145
ii	-9.64231
逆	-9.64244
委員	-9.64247
富	-9.64301
ss	-9.64526
軸	-9.64552
反対	-9.64562
税	-9.6461
善	-9.64645
中心	-9.64708
酸	-9.64725
es	-9.64728
いくつかの	-9.64795
康	-9.64803
だい	-9.64979
なり	-9.64981
宗教	-9.65027
留	-9.65061
で行われた	-9.65147
番号	-9.65192
スタイル	-9.65274
訳	-9.65308
を受ける	-9.65401
内で	-9.65549
オン	-9.65597
やま	-9.65608
資料	-9.65613
姓	-9.65616
望	-9.65638
▁2002	-9.65641
するが	-9.65671
2016	-9.65782
などに	-9.65878
連邦	-9.65913
廃止	-9.65939
広島	-9.6613
孫	-9.66139
分野	-9.66149
印	-9.66164
の娘	-9.66247
do	-9.66287
にあり	-9.66292
になると	-9.66326
設立	-9.66327
が行われ	-9.66479
開業	-9.66494
倍	-9.66547
アメリカの	-9.6657
事務所	-9.66637
別の	-9.66688
46	-9.6669
しょう	-9.66733
訓練	-9.66789
55	-9.66794
同時に	-9.66795
皇帝	-9.6681
選択	-9.669
をもって	-9.66952
介	-9.67001
▁これ	-9.67061
貴	-9.67064
けん	-9.6708
機体	-9.67113
を参照	-9.67133
丁目	-9.67145
務	-9.67146
だと	-9.67191
視	-9.67223
九	-9.67352
減	-9.67429
周辺	-9.67437
観光	-9.67523
オランダ	-9.67535
早	-9.67577
弟	-9.67661
としても	-9.67701
君	-9.67762
温泉	-9.67852
とその	-9.67855
アンド	-9.67861
学部	-9.67866
ミー	-9.67883
博物館	-9.67938
れば	-9.67941
とう	-9.67977
李	-9.68044
sa	-9.68137
47	-9.68143
制御	-9.68221
プラ	-9.68222
▁例えば	-9.68235
当初は	-9.68237
▁and	-9.68297
新たに	-9.68421
を指す	-9.68423
本部	-9.68477
塔	-9.68547
ブルー	-9.68638
急	-9.68686
小さな	-9.68711
ほとんど	-9.68719
ライト	-9.68797
▁現在	-9.68807
ブリ	-9.68874
剤	-9.68938
出す	-9.68942
茶	-9.69129
歳で	-9.6918
柳	-9.69217
ティー	-9.6928
と呼ぶ	-9.69406
▁2001	-9.69435
ウス	-9.69438
2017	-9.69446
ジン	-9.69447
コル	-9.69464
アップ	-9.69475
すべて	-9.69579
そのまま	-9.69623
彼	-9.69624
東部	-9.69761
キング	-9.69775
os	-9.69776
ミュージック	-9.69782
毎年	-9.69877
江戸	-9.69935
基地	-9.69936
友	-9.69951
議員	-9.70017
トル	-9.70104
圏	-9.70125
に近い	-9.70144
キャ	-9.70187
行き	-9.70245
緑	-9.70263
配置	-9.70267
最終	-9.70299
盛	-9.703
単位	-9.70307
専用	-9.70322
ストーリー	-9.70362
タイプ	-9.70388
▁6	-9.70432
連絡	-9.70458
ミン	-9.70596
要素	-9.70687
機械	-9.70704
地元	-9.70706
以後	-9.70725
出した	-9.70769
地下	-9.70781
関東	-9.70862
ジャー	-9.70985
法律	-9.70998
沼	-9.71016
以降は	-9.71083
ニア	-9.71132
▁5	-9.71257
ラム	-9.71266
線の	-9.71338
ことが多い	-9.71398
になって	-9.71414
通算	-9.71547
様	-9.7157
2018	-9.71606
乱	-9.7161
車体	-9.71636
on	-9.71647
400	-9.71673
アメリカ合衆国の	-9.71727
湯	-9.7175
装備	-9.7186
いわゆる	-9.71876
内閣	-9.71887
ワールド	-9.71936
ボー	-9.71981
ボン	-9.71996
となっていた	-9.72053
死去	-9.72064
モー	-9.72095
バージョン	-9.7211
ゲン	-9.72182
イギリスの	-9.72207
速度	-9.72244
標準	-9.72252
分離	-9.72253
最大の	-9.72258
部屋	-9.72276
美術	-9.72327
切	-9.72372
と考えられている	-9.72388
たちは	-9.72419
件	-9.72486
トラック	-9.72509
となって	-9.72543
可能	-9.72551
位置	-9.72588
網	-9.72591
機器	-9.72623
フォン	-9.72681
を開始した	-9.72724
▁翌	-9.72733
に属する	-9.72756
at	-9.72762
の研究	-9.72773
要	-9.72803
引退	-9.72864
生物	-9.72866
指	-9.72897
切り	-9.72926
ルート	-9.73017
報告	-9.73024
クロ	-9.73141
イー	-9.73185
』、『	-9.73292
前の	-9.7335
mo	-9.73422
as	-9.73433
基本	-9.73455
営	-9.7348
日本語	-9.73489
主人公	-9.73578
脳	-9.73665
までの	-9.73687
綱	-9.73722
連盟	-9.73726
▁現在は	-9.73752
黄	-9.738
オーストリア	-9.73852
ックス	-9.73865
貴族	-9.74018
公式	-9.7412
アフリカ	-9.74181
1000	-9.74364
種類	-9.74384
関西	-9.74395
採用	-9.74424
がない	-9.74479
強い	-9.74556
テル	-9.74733
したり	-9.74746
生徒	-9.74763
42	-9.74782
地震	-9.74826
一部の	-9.74898
慶	-9.74909
世の	-9.74926
改造	-9.74954
竜	-9.74993
一人	-9.75041
においても	-9.75055
修	-9.75157
大陸	-9.75203
特徴	-9.7525
しん	-9.75283
傷	-9.7529
冠	-9.75357
を意味する	-9.75374
コード	-9.75385
ごとに	-9.75389
ジョージ	-9.75459
化学	-9.7548
シャー	-9.75525
がいる	-9.75582
資金	-9.75646
太陽	-9.75649
予選	-9.7566
広く	-9.75665
銃	-9.75667
装	-9.75693
改革	-9.75794
!』	-9.75795
建物	-9.75837
側の	-9.75861
必要	-9.75863
商業	-9.75911
方向	-9.75993
回転	-9.76005
劇	-9.76149
記事	-9.7615
きた	-9.76152
ゆ	-9.76155
支配	-9.76195
獲得	-9.76233
時代に	-9.76233
冬	-9.76268
すれば	-9.76287
具	-9.76334
一方	-9.76375
!」	-9.76396
2004	-9.76433
だけでなく	-9.76437
余	-9.76444
ことになる	-9.76466
桜	-9.76476
×	-9.7651
カール	-9.76593
にして	-9.76652
長い	-9.76692
43	-9.76708
et	-9.76763
してきた	-9.76787
-2	-9.76921
肉	-9.76924
フォード	-9.7694
のもの	-9.76982
ファー	-9.76993
書き	-9.77018
pc	-9.77024
術	-9.77191
連合	-9.77228
、2010	-9.77255
自身	-9.77301
を取り	-9.77363
ダイ	-9.77394
ジャン	-9.77471
シェ	-9.77503
ケン	-9.77517
過	-9.77529
に入り	-9.77544
ヴァー	-9.7755
しばしば	-9.77566
▁formula	-9.77581
を務め	-9.7763
▁1990	-9.77636
展示	-9.77741
の場合	-9.77788
ge	-9.77789
文書	-9.77876
スタッフ	-9.77937
マーク	-9.77962
延長	-9.78011
中で	-9.78022
幕	-9.78049
の間	-9.78104
神戸	-9.78106
陸	-9.7812
同社	-9.78139
ga	-9.78141
深	-9.78179
デジタル	-9.78278
労働	-9.78371
ペン	-9.78402
年にかけて	-9.78432
is	-9.78519
言葉	-9.78603
落	-9.78642
本塁打	-9.78703
交流	-9.78733
2019	-9.78867
性能	-9.78934
欧州	-9.78948
使	-9.78966
ブラジル	-9.78975
操作	-9.79
▁16	-9.79
設備	-9.79144
ゴール	-9.79245
パーク	-9.79276
農	-9.793
貞	-9.79323
コンピュータ	-9.79358
唯一の	-9.79389
多数の	-9.79411
法人	-9.79416
孝	-9.79446
電力	-9.79459
なか	-9.7949
ボール	-9.79515
実際に	-9.79592
旅	-9.79665
オス	-9.79682
グリ	-9.79699
出力	-9.79711
ne	-9.79726
意味	-9.79825
防	-9.79839
58	-9.79856
編集	-9.79865
ベース	-9.79932
対策	-9.8008
延	-9.8011
を結ぶ	-9.80132
際に	-9.80175
イングランド	-9.80209
立ち	-9.80233
ソフト	-9.80322
投手	-9.80324
堀	-9.80396
ca	-9.804
ポール	-9.80404
情	-9.80422
カラ	-9.80433
or	-9.80508
アス	-9.80541
辺	-9.80582
することができる	-9.80585
発展	-9.80629
油	-9.80654
俊	-9.80725
本社	-9.80751
仲	-9.80765
牛	-9.80862
▁10	-9.80869
布	-9.80887
.2	-9.80923
ウェイ	-9.80929
密	-9.80954
プロデューサー	-9.80963
距離	-9.8097
ともに	-9.80974
41	-9.80976
▁18	-9.81104
扱い	-9.81117
地上	-9.81124
モード	-9.81167
枝	-9.81272
号線	-9.8128
からなる	-9.81288
安全	-9.81303
定義	-9.8133
昌	-9.81457
ネットワーク	-9.81463
もう	-9.81478
材	-9.81486
指揮	-9.81527
任務	-9.81626
、2007	-9.81671
共に	-9.81676
すべての	-9.81689
と同様に	-9.81727
スタート	-9.8174
lo	-9.81762
ad	-9.81778
メル	-9.81801
ほう	-9.81811
ていく	-9.81937
▁日本では	-9.82013
▁8	-9.82018
いずれも	-9.82048
のち	-9.82079
罪	-9.82141
まず	-9.82145
行われた	-9.82169
高速	-9.82177
ことに	-9.82215
意識	-9.823
▁7	-9.82355
ピアノ	-9.82359
部長	-9.8236
リオ	-9.8242
付き	-9.82475
ゾ	-9.82576
日より	-9.82625
諸島	-9.8266
博	-9.82664
栄	-9.82688
保存	-9.82745
オル	-9.82822
結合	-9.82874
結	-9.82911
フォ	-9.82928
供給	-9.82952
げ	-9.82958
ハウス	-9.83051
、2008	-9.83052
、2009	-9.83053
流れ	-9.83101
発生	-9.83112
▁元	-9.8321
思想	-9.83275
名が	-9.83278
65	-9.83303
要求	-9.83349
ール	-9.83369
ia	-9.83379
本線	-9.83411
▁大	-9.83418
停止	-9.83485
領域	-9.83538
リリース	-9.83545
競走	-9.83582
球団	-9.83614
資格	-9.83649
月まで	-9.83718
込む	-9.83722
ものは	-9.83791
カラー	-9.83885
優	-9.83902
週	-9.83977
▁だが	-9.84007
オープン	-9.84022
歩	-9.84058
ユー	-9.84097
祖	-9.84144
クル	-9.84224
掲載	-9.84279
タル	-9.84285
ac	-9.84363
交渉	-9.84411
接続	-9.84516
同じく	-9.84521
柱	-9.84599
相手	-9.84616
従	-9.84645
料	-9.84653
49	-9.84659
住宅	-9.84672
だけで	-9.84715
窓	-9.84739
進出	-9.84848
したもの	-9.84881
軍は	-9.84889
智	-9.84956
となっており	-9.85003
ウィリアム	-9.85029
と言う	-9.85054
影響	-9.8512
64	-9.85138
住民	-9.8514
ヴァン	-9.85144
を得た	-9.85145
グラ	-9.85155
までは	-9.85185
▁1999	-9.85199
医	-9.85277
75	-9.85309
声優	-9.85316
be	-9.85317
純	-9.85409
交	-9.85475
眼	-9.85485
中継	-9.85494
名を	-9.85558
ほ	-9.85751
積	-9.859
ナン	-9.86019
課	-9.86064
タウン	-9.86104
かわ	-9.86104
自治体	-9.86123
仕事	-9.86182
のほか	-9.86202
報	-9.86236
導入	-9.86312
じょう	-9.86325
圧	-9.8635
殺	-9.86411
ちゃん	-9.86437
で開催された	-9.86541
しなかった	-9.86584
翼	-9.86641
の中心	-9.86644
伝説	-9.86683
年代に	-9.86698
投票	-9.86729
li	-9.86749
論文	-9.86769
、2011	-9.86793
独自の	-9.86818
杯	-9.86826
自動	-9.86832
伯	-9.86866
茂	-9.86902
いない	-9.86915
を用いて	-9.86922
あまり	-9.86969
健	-9.87002
あった	-9.8708
受	-9.87104
価格	-9.87128
追加	-9.8713
付近	-9.87145
放	-9.87194
▁12	-9.87205
症	-9.87285
憲法	-9.87339
インターネット	-9.87341
速	-9.87384
ホー	-9.87404
脚	-9.87416
、2006	-9.87439
朝鮮	-9.87569
改良	-9.87616
穴	-9.87731
起	-9.87737
fa	-9.87786
てしまう	-9.87883
対立	-9.87949
ter	-9.88035
ソー	-9.88087
分析	-9.8809
姫	-9.88091
会場	-9.88118
王座	-9.88159
についても	-9.88175
主演	-9.8818
ごう	-9.88191
境	-9.88221
購入	-9.88236
物質	-9.88242
固定	-9.88265
平和	-9.88294
レベル	-9.88294
ジャパン	-9.88302
ポン	-9.88319
などがある	-9.88365
ベン	-9.88378
トロ	-9.88385
補	-9.88417
名称	-9.88426
剣	-9.88431
世代	-9.88451
プレ	-9.88471
cc	-9.88479
もあった	-9.88503
略	-9.88564
普通	-9.8858
射	-9.88603
次郎	-9.88608
限定	-9.88609
確認	-9.88657
温	-9.88854
ことになった	-9.88868
博士	-9.88891
脚本	-9.88894
理由	-9.88895
なくなった	-9.89043
アナ	-9.89056
なし	-9.8906
計算	-9.8906
議	-9.8914
愛知県	-9.89159
エス	-9.8918
サイド	-9.89231
少女	-9.89248
まま	-9.89253
推進	-9.89305
ヘル	-9.89308
従来の	-9.89314
演出	-9.8938
礼	-9.89424
通常	-9.89481
近く	-9.89491
?	-9.89518
ピー	-9.89523
後期	-9.89526
全体	-9.89534
da	-9.89563
甲	-9.89633
原作	-9.89639
57	-9.89649
54	-9.89656
ものであった	-9.89739
を有する	-9.89786
議論	-9.89804
#	-9.89816
発見	-9.89847
と同時に	-9.89875
ドー	-9.89894
ar	-9.8994
tbs	-9.8998
検査	-9.89984
大きく	-9.89996
旅行	-9.90031
ダンス	-9.90033
まだ	-9.90042
の開発	-9.90095
拡張	-9.90171
世は	-9.90178
56	-9.90219
復帰	-9.90256
トンネル	-9.90345
記載	-9.90359
植民地	-9.90396
旗	-9.90415
とされた	-9.90444
アーティスト	-9.90455
解散	-9.90495
ri	-9.90532
房	-9.90543
フィールド	-9.90579
たり	-9.90648
gp	-9.90668
シア	-9.90668
臣	-9.90674
記述	-9.90684
チュ	-9.90706
ジュニア	-9.90763
こともあり	-9.90783
ベイ	-9.90826
考え	-9.9083
弱	-9.90881
打ち	-9.90882
更新	-9.90886
2003	-9.90915
▁そこで	-9.90958
のメンバー	-9.90989
ソフトウェア	-9.9099
卵	-9.91048
目標	-9.9105
可能性	-9.91067
sp	-9.91068
ms	-9.91119
▁これにより	-9.91171
sc	-9.91219
、2012	-9.91232
戦車	-9.91236
エイ	-9.91271
合成	-9.91296
被害	-9.91299
ルール	-9.91325
フランスの	-9.9137
関数	-9.91395
リス	-9.91433
いい	-9.91434
精	-9.91457
氷	-9.91462
らが	-9.91487
go	-9.91502
の間に	-9.91505
ようになる	-9.91536
セント	-9.91558
太平洋	-9.91577
まる	-9.91581
歯	-9.91598
うち	-9.91605
ビン	-9.91678
ロード	-9.91696
自己	-9.91697
也	-9.91732
宣言	-9.9175
禁止	-9.91964
貿易	-9.91982
絶	-9.92018
脱	-9.92023
チン	-9.92059
師団	-9.92102
キリスト教	-9.92133
香港	-9.9214
ミニ	-9.92239
vi	-9.92244
電話	-9.92269
知事	-9.92335
▁to	-9.92481
録音	-9.92542
▁それ	-9.92579
策	-9.92635
画家	-9.92647
1990	-9.92778
責任	-9.92824
金属	-9.92876
参	-9.92882
将	-9.92943
込んだ	-9.93015
-3	-9.93033
医師	-9.93091
▁1980	-9.93116
破	-9.9312
取引	-9.93143
ra	-9.93178
炎	-9.93182
現象	-9.93196
に入る	-9.93239
全日本	-9.93248
マス	-9.93328
改正	-9.93371
治療	-9.93414
乳	-9.93449
pa	-9.93472
アイルランド	-9.93497
▁<	-9.93509
されたが	-9.93537
ぬ	-9.93549
就任	-9.93558
殿	-9.93579
180	-9.93581
各種	-9.9359
an	-9.9361
il	-9.93618
エリア	-9.93621
床	-9.93686
比較的	-9.93688
パス	-9.93695
ブラック	-9.937
に由来する	-9.93766
ヒット	-9.93766
コーチ	-9.93889
被	-9.9398
ッシュ	-9.93993
ブロック	-9.94014
手法	-9.94106
をする	-9.9419
収	-9.94208
成長	-9.94274
戦い	-9.94312
を除く	-9.94328
メキシコ	-9.94386
...	-9.94389
多く	-9.94409
フォー	-9.94425
半島	-9.94437
練習	-9.94438
読み	-9.94444
段階	-9.94461
国鉄	-9.94483
既に	-9.94547
ベルリン	-9.94578
の結果	-9.94594
ーズ	-9.94611
学会	-9.94615
サル	-9.94629
登場	-9.94664
ッチ	-9.94665
老	-9.94668
廃	-9.94705
2001	-9.94718
レギュラー	-9.94754
刀	-9.94762
テーマ	-9.94777
ギター	-9.9478
砂	-9.94808
の名前	-9.9482
の存在	-9.9482
応	-9.9482
とされ	-9.94837
2002	-9.94894
退	-9.94912
▁1998	-9.94917
mi	-9.94976
受け	-9.95038
これら	-9.95141
動き	-9.95161
▁11	-9.95226
柄	-9.95227
王者	-9.95265
完全	-9.95288
護	-9.95302
ことも	-9.95315
に関しては	-9.95316
調整	-9.95446
のひとつ	-9.95594
▁e	-9.95603
住	-9.95652
成功	-9.95655
▁本	-9.95662
すぐに	-9.95681
紀元前	-9.95717
武器	-9.95749
99	-9.95791
分子	-9.95792
改善	-9.95805
コンサート	-9.95831
規制	-9.95839
独	-9.95856
に加え	-9.95867
不足	-9.95881
ソロ	-9.959
政党	-9.95905
を果たした	-9.95927
散	-9.95948
レット	-9.95953
いく	-9.95958
復活	-9.95962
id	-9.96
ケース	-9.96009
市内	-9.96032
医学	-9.96042
59	-9.9607
デー	-9.96213
底	-9.96222
鈴木	-9.96228
カメラ	-9.96267
一方で	-9.96279
デス	-9.96435
民主党	-9.96444
唐	-9.96446
ドラ	-9.96542
リック	-9.96572
合い	-9.96604
イル	-9.96721
共	-9.96732
は約	-9.96758
するという	-9.96771
遺跡	-9.96776
おお	-9.96819
通称	-9.96823
ネス	-9.96838
レッド	-9.96854
▁現在の	-9.96862
むら	-9.96943
読	-9.96962
航空機	-9.9697
許可	-9.97011
スク	-9.97048
児	-9.97149
抵抗	-9.9715
第三	-9.97163
ki	-9.972
電車	-9.97236
神経	-9.97239
ke	-9.9725
にわたって	-9.97436
期待	-9.97473
テレビドラマ	-9.97476
魔	-9.97517
アナウンサー	-9.97538
ポリ	-9.97564
顔	-9.97587
▁当初は	-9.97634
ざ	-9.97667
筆	-9.97684
、2014	-9.97698
息子	-9.97732
阿	-9.97733
過去	-9.97743
ha	-9.97748
です	-9.97824
鬼	-9.97852
月より	-9.97919
を始め	-9.97933
テスト	-9.97943
プレイヤー	-9.98037
▁9	-9.98042
に参加	-9.98067
▁p	-9.98086
ゲスト	-9.98115
認定	-9.98153
エー	-9.98207
場合もある	-9.98309
の歴史	-9.98368
ページ	-9.98406
ぼ	-9.98414
でき	-9.98498
日間	-9.98529
労働者	-9.98608
ワールドカップ	-9.98665
氏の	-9.98665
遺	-9.98676
▁k	-9.98685
国の	-9.98703
グランプリ	-9.98835
創設	-9.98854
デイ	-9.98865
三郎	-9.9892
、2013	-9.98926
本作	-9.98932
可能な	-9.99009
セイ	-9.99018
化した	-9.99052
鶴	-9.99064
市長	-9.99165
をはじめ	-9.99182
事実	-9.9922
派の	-9.99314
燃料	-9.9937
維持	-9.99379
率いる	-9.99394
恵	-9.99403
っており	-9.99431
投	-9.99435
オール	-9.99442
型の	-9.99461
古代	-9.99537
民間	-9.99574
ヒル	-9.99577
英国	-9.99579
東北	-9.99597
焼	-9.99615
許	-9.99642
週間	-9.99643
度目の	-9.99687
formula	-9.9973
の影響	-9.99755
統治	-9.99768
劉	-9.99794
さまざまな	-9.99831
破壊	-9.99858
▁後に	-9.99901
万ドル	-9.99908
ドイツの	-9.99938
組合	-10
実現	-10.0001
鎮	-10.0001
支持	-10.0004
の中に	-10.001
衣	-10.0024
食品	-10.0034
▁g	-10.0034
▁1997	-10.0034
スペシャル	-10.0038
クリ	-10.0042
を用いた	-10.0045
一郎	-10.0047
離	-10.0047
健康	-10.0051
姿	-10.0053
gi	-10.0055
いち	-10.0055
患者	-10.0056
であるため	-10.006
イメージ	-10.006
有名	-10.0063
1980	-10.0063
億円	-10.0068
リュ	-10.0069
ミス	-10.007
める	-10.0072
ちょう	-10.0073
un	-10.008
ation	-10.008
した後	-10.008
田中	-10.0084
賀	-10.0085
▁明治	-10.0085
プリ	-10.0093
裁判	-10.0095
沖縄	-10.0099
と対戦し	-10.0101
、2005	-10.0101
腕	-10.0102
評	-10.0104
入れ	-10.0105
グリーン	-10.0108
環	-10.0111
区別	-10.0113
レーベル	-10.0122
ウル	-10.0126
腹	-10.013
〉	-10.0132
の一人	-10.0133
チャンネル	-10.0134
〈	-10.0144
ba	-10.0145
ずつ	-10.0145
丘	-10.0146
年以降	-10.0146
試	-10.0147
ci	-10.0147
ものが	-10.015
思い	-10.0151
連隊	-10.0163
配	-10.0172
更に	-10.0174
▁全	-10.0174
エア	-10.0174
時は	-10.0179
泰	-10.0183
できた	-10.0184
作曲家	-10.0186
ランキング	-10.0188
メイ	-10.0189
ハル	-10.019
福岡	-10.0192
階級	-10.0193
意見	-10.0197
のまま	-10.02
回復	-10.0211
納	-10.0212
ノン	-10.0215
奈	-10.0225
ッド	-10.0227
幕府	-10.0227
仮	-10.0227
テレ	-10.0228
向き	-10.0236
製の	-10.024
▁1996	-10.0248
澤	-10.0253
事態	-10.0254
戦後	-10.0257
可	-10.026
仲間	-10.0268
衛星	-10.0269
誕生	-10.0271
惑星	-10.0273
準	-10.0274
処分	-10.0276
▁/	-10.0276
、2015	-10.0282
地点	-10.0283
、2000	-10.0285
子の	-10.0285
イオン	-10.0285
ka	-10.0286
長官	-10.0287
だろう	-10.029
前後	-10.029
称	-10.0292
bs	-10.0294
発射	-10.0297
ワイ	-10.0298
""	-10.0299
バラ	-10.0301
son	-10.0301
に関して	-10.0304
600	-10.0306
サイズ	-10.0306
千葉	-10.0308
雅	-10.0309
ダル	-10.0312
後も	-10.0314
ドア	-10.0316
なども	-10.0318
参戦	-10.0319
化された	-10.0319
関係者	-10.0319
までに	-10.0321
岸	-10.0326
マイル	-10.0329
宇	-10.0331
大規模な	-10.0345
ポー	-10.0348
複数	-10.0354
近代	-10.0355
証	-10.036
ti	-10.0363
85	-10.0367
信仰	-10.0367
に就任	-10.0369
千葉県	-10.0375
スウェーデン	-10.0377
に登場する	-10.0382
150	-10.0387
主張	-10.0391
休	-10.0396
に入った	-10.0398
区域	-10.04
埼玉県	-10.0402
学院	-10.0405
吉田	-10.0411
皮	-10.0411
たか	-10.0413
長期	-10.0414
追	-10.0419
とも呼ばれる	-10.0421
マリ	-10.0425
始めた	-10.0427
改	-10.0428
と呼ばれ	-10.0431
券	-10.0437
初期の	-10.0442
街道	-10.0448
拠点	-10.045
恋	-10.0452
児童	-10.0456
ファイル	-10.0456
小型	-10.0457
カバー	-10.0457
継続	-10.0458
それが	-10.0459
準備	-10.0461
ルイ	-10.0466
細	-10.047
市出身	-10.0479
合計	-10.0489
静	-10.0489
中村	-10.0499
集合	-10.0503
800	-10.0505
国王	-10.0506
▁当時	-10.0512
特定の	-10.0514
ボル	-10.0514
ゴー	-10.0515
票	-10.0518
av	-10.0525
であること	-10.0526
始め	-10.0526
つく	-10.0527
ング	-10.0532
大阪府	-10.0533
広告	-10.0534
アリ	-10.0537
運	-10.0537
の際に	-10.0544
失	-10.0547
を使って	-10.0554
51	-10.0555
内部	-10.0556
一度	-10.0557
後半	-10.0561
ガル	-10.0567
▁1995	-10.057
ピン	-10.0572
羅	-10.0573
送	-10.0577
最初に	-10.0581
長崎	-10.0586
_	-10.0587
輸入	-10.0587
終	-10.059
たちが	-10.0593
-4	-10.0597
ップ	-10.0599
題	-10.06
業界	-10.0609
提案	-10.0611
売	-10.0618
ナイト	-10.0624
程	-10.0625
分の	-10.0626
理解	-10.0639
翌年	-10.0645
継承	-10.0647
ます	-10.0652
名誉	-10.0654
]	-10.0655
判決	-10.066
思	-10.066
88	-10.0661
-6	-10.0662
タレント	-10.0664
と述べている	-10.0665
▁w	-10.0669
多数	-10.0672
を獲得した	-10.0673
ときに	-10.0673
古い	-10.0682
クレ	-10.0684
正式に	-10.0685
典	-10.0687
、2016	-10.069
雑	-10.0705
弁護士	-10.0709
つき	-10.0709
ディア	-10.0709
上げ	-10.0715
man	-10.0715
中部	-10.0719
プレー	-10.072
敬	-10.0722
ヴォ	-10.0728
にもかかわらず	-10.0729
失敗	-10.0732
が行われる	-10.0733
に基づく	-10.0734
諸国	-10.0736
河川	-10.0737
これが	-10.0739
特定	-10.074
嘉	-10.0744
主要	-10.0744
▁d	-10.0749
富士	-10.075
クー	-10.0752
青年	-10.0754
画面	-10.0759
自分	-10.0761
▁t	-10.0764
ds	-10.0767
結成	-10.0769
駅間	-10.0772
解釈	-10.0779
寺院	-10.078
からも	-10.0781
毒	-10.0783
上位	-10.0789
途中	-10.0789
マシン	-10.0795
ラス	-10.0796
塚	-10.0798
86	-10.08
メジャー	-10.0803
侵攻	-10.0804
それぞれの	-10.0809
シル	-10.0812
解決	-10.082
冊	-10.0823
えき	-10.0825
なければ	-10.0827
日本で	-10.0828
れる	-10.0831
登	-10.0832
エピソード	-10.0832
▁1970	-10.0833
犯罪	-10.0833
年齢	-10.0835
接	-10.0837
ことにより	-10.0839
戦略	-10.0839
栽培	-10.0841
飯	-10.085
com	-10.0855
パル	-10.0856
ol	-10.0859
兵器	-10.0859
コミック	-10.0867
畑	-10.0868
に至る	-10.0869
▁ア	-10.0872
カイ	-10.0873
ck	-10.0875
撤退	-10.088
協定	-10.0883
▁一方で	-10.0884
と考えられる	-10.0885
é	-10.0891
髪	-10.0901
を超える	-10.0904
<	-10.0906
のちに	-10.0913
側面	-10.0916
箱	-10.0917
作成	-10.0921
共通	-10.0921
衝突	-10.0922
ウィン	-10.0923
ur	-10.0926
ニン	-10.0928
彼女の	-10.0929
52	-10.0938
争い	-10.0938
固	-10.0939
哲学	-10.0943
価値	-10.0945
成績	-10.0945
63	-10.0947
ものであり	-10.0948
を表す	-10.0948
競馬	-10.0956
少	-10.0957
ケイ	-10.0964
低い	-10.0969
菌	-10.0969
認識	-10.097
没	-10.0975
ビジネス	-10.0975
鹿	-10.0976
阪神	-10.0976
トム	-10.0992
取得	-10.0995
あたり	-10.0997
貨物	-10.0998
のみで	-10.0999
集落	-10.1004
スペース	-10.1004
膜	-10.1005
実行	-10.1007
姉	-10.1007
作用	-10.1008
家庭	-10.101
紹介	-10.101
▁1994	-10.1011
呉	-10.1016
ヴェル	-10.1019
空気	-10.102
fm	-10.102
成立	-10.1021
側に	-10.1022
裕	-10.1023
べき	-10.1025
53	-10.1029
場合には	-10.1034
降	-10.1035
の場合は	-10.1041
ly	-10.1042
安定	-10.1043
地下鉄	-10.1043
得	-10.1053
フレ	-10.1059
チャンピオン	-10.1059
1970	-10.1067
ケー	-10.1067
佐藤	-10.1068
荒	-10.1072
折	-10.1073
決勝	-10.1074
一時	-10.1076
していく	-10.1077
世紀の	-10.1082
藤原	-10.1083
亜	-10.1084
フィン	-10.1088
ヶ月	-10.1098
95	-10.1102
傾向	-10.1104
の息子	-10.1104
箇所	-10.1108
しく	-10.1108
東海	-10.1111
舞	-10.1111
ユダヤ人	-10.1113
やすい	-10.112
当時は	-10.1121
規模	-10.1123
当選	-10.1129
か月	-10.1138
トレ	-10.1139
仏教	-10.1139
一番	-10.1143
年現在	-10.1149
移転	-10.1155
ナイ	-10.1156
77	-10.116
形成	-10.116
スタジアム	-10.1161
アウト	-10.1169
キュ	-10.117
1999	-10.1171
裁判所	-10.1172
現実	-10.1175
禁	-10.1177
▁re	-10.1183
美術館	-10.1183
滝	-10.1183
2020	-10.1187
ジャック	-10.1189
構想	-10.1191
すでに	-10.1192
梅	-10.1195
グル	-10.1205
作り	-10.1206
陳	-10.1208
ry	-10.1209
度の	-10.1211
が必要	-10.1213
動作	-10.1213
シャン	-10.1215
あと	-10.1217
スクール	-10.1218
面積	-10.1219
指名	-10.1221
、2004	-10.1222
ロケット	-10.1223
山田	-10.1231
.3	-10.1232
職員	-10.1245
たちの	-10.1245
派遣	-10.1246
マリア	-10.1247
アイドル	-10.125
向上	-10.1254
ユーザー	-10.1255
尊	-10.1256
一般的な	-10.1257
まり	-10.1258
ブレ	-10.126
兵士	-10.126
所有	-10.126
次第に	-10.1262
潜水艦	-10.1265
78	-10.1267
bo	-10.1274
死亡	-10.1276
オペラ	-10.1279
背	-10.1283
チャー	-10.1288
飛	-10.1293
も多い	-10.1293
棟	-10.1293
ip	-10.1297
暦	-10.1297
を記録した	-10.1298
姉妹	-10.1298
打率	-10.1298
パラ	-10.1298
奏	-10.13
露	-10.1302
寿	-10.1305
をした	-10.1306
ヤン	-10.1306
ていった	-10.1307
あい	-10.1308
およそ	-10.1312
されていたが	-10.1317
形状	-10.132
規格	-10.1322
交差点	-10.1323
強化	-10.1325
友人	-10.1337
標高	-10.1337
を得る	-10.1338
現在も	-10.1338
刑	-10.1341
帰	-10.1341
をしている	-10.1347
間に	-10.1349
けい	-10.1351
▁その他	-10.1353
68	-10.1357
再生	-10.136
同一	-10.1362
自身が	-10.1365
ものを	-10.1368
▁このような	-10.1368
学科	-10.1373
▁東京	-10.1377
ビット	-10.138
海岸	-10.1381
昭	-10.1383
回り	-10.1383
ワシントン	-10.1387
末期	-10.1387
宣	-10.139
杉	-10.1397
ウェ	-10.1398
置	-10.1402
翻訳	-10.1404
ステ	-10.1411
当初	-10.1411
歌詞	-10.1414
従来	-10.1417
短	-10.1417
トルコ	-10.1418
colspan	-10.1418
刊行	-10.142
与	-10.1421
生き	-10.1423
昇	-10.1427
爆発	-10.1431
ブー	-10.1434
自らの	-10.1443
させて	-10.1449
給	-10.1449
大和	-10.1454
位の	-10.1457
、2017	-10.1462
邦	-10.1467
しい	-10.1468
;	-10.1474
崩壊	-10.1475
キャリア	-10.1475
ジョー	-10.1475
自治	-10.1476
ベー	-10.1483
仕	-10.1487
きょう	-10.1487
ペル	-10.1489
ブレーキ	-10.1489
上昇	-10.1491
振	-10.1493
よい	-10.1497
できなかった	-10.1497
したこと	-10.1498
向けの	-10.1507
ンズ	-10.1511
ex	-10.1513
母親	-10.1513
に参加した	-10.1514
様式	-10.1518
演劇	-10.1518
時点で	-10.1525
66	-10.1528
を通して	-10.1529
ものと	-10.153
寄	-10.1533
残り	-10.1534
教師	-10.1534
糸	-10.1538
エジプト	-10.1539
▁主に	-10.1545
輝	-10.1547
走行	-10.1547
はなく	-10.1547
▁各	-10.155
伊勢	-10.1551
ミル	-10.1553
譲	-10.1554
フィー	-10.1554
徐々に	-10.1555
その他の	-10.1555
月号	-10.1556
ようになり	-10.1557
整	-10.1561
替え	-10.1567
戦では	-10.157
クロス	-10.1573
らない	-10.1573
si	-10.1574
仙台	-10.1578
稲	-10.1579
62	-10.1588
信号	-10.1589
庭	-10.1591
武装	-10.1594
益	-10.1614
荘	-10.1615
検討	-10.1621
講師	-10.1625
財政	-10.1626
のか	-10.1629
カット	-10.163
年からは	-10.163
スは	-10.163
方針	-10.1638
冷	-10.1648
続く	-10.165
通常の	-10.1651
の間で	-10.1651
コール	-10.1658
ce	-10.1658
部の	-10.1662
ソング	-10.1663
執筆	-10.1667
▁15	-10.1669
権利	-10.1669
振り	-10.1676
の各	-10.1677
墓	-10.1688
陰	-10.169
発表された	-10.1692
輸出	-10.17
僧	-10.1702
ine	-10.1704
山本	-10.1704
動画	-10.1704
▁1992	-10.1705
合意	-10.1707
特殊	-10.1709
一族	-10.1709
ヌス	-10.1713
au	-10.1719
首都	-10.172
比較	-10.1722
98	-10.1724
業者	-10.1725
モスクワ	-10.1733
占領	-10.1733
ゴン	-10.1736
デュ	-10.1739
性格	-10.1744
導	-10.1746
彼が	-10.1749
統計	-10.1749
卒業後	-10.1754
表面	-10.1755
銅	-10.1757
なお	-10.1764
系列	-10.1765
▁for	-10.1765
することを	-10.1767
▁1993	-10.1769
so	-10.177
果	-10.1771
遠征	-10.1772
長さ	-10.1776
ho	-10.1776
指導者	-10.1788
、1990	-10.1791
プロダクション	-10.1795
由来	-10.1797
オーバー	-10.1799
適用	-10.1801
パワー	-10.1807
金融	-10.1808
クト	-10.1811
理事	-10.1816
を引き	-10.1817
アカデミー	-10.1817
有名な	-10.182
山口	-10.1827
事業者	-10.1828
するための	-10.1835
ブロ	-10.1837
最終的に	-10.1841
札幌	-10.1841
例えば	-10.1843
当たり	-10.1846
、2018	-10.1849
を始めた	-10.1849
▁かつては	-10.1851
しゃ	-10.1851
株	-10.1853
名の	-10.1856
賢	-10.1859
帰国	-10.1862
を描いた	-10.1862
の一つである	-10.1862
そこ	-10.1863
取締役	-10.1864
東側	-10.1865
重量	-10.1866
快	-10.187
ッカー	-10.1872
刺	-10.1872
ver	-10.1874
ハンガリー	-10.1877
中止	-10.1878
略称	-10.1881
次元	-10.1882
すべき	-10.1888
装甲	-10.1888
昇格	-10.1889
ザン	-10.1892
それまで	-10.1895
則	-10.1896
しながら	-10.1903
丁	-10.1904
知識	-10.1906
地帯	-10.1907
重要	-10.1907
検	-10.1915
ほどの	-10.1915
入学	-10.1917
ゲル	-10.192
リンク	-10.1921
解放	-10.1922
祖父	-10.1922
61	-10.1923
投資	-10.1932
ロバート	-10.1933
人を	-10.1936
加盟	-10.1941
めた	-10.1942
影	-10.1945
式の	-10.1952
同様	-10.1953
史上	-10.1955
アク	-10.1964
▁1991	-10.1964
フラ	-10.1966
と呼ばれた	-10.1967
混乱	-10.1969
駆逐艦	-10.1969
ni	-10.1971
ミサイル	-10.1975
存在する	-10.1979
.1	-10.1979
を発表した	-10.1979
芸	-10.198
多い	-10.198
ギリシャ	-10.1989
に変更	-10.1989
の下で	-10.1993
至	-10.1996
5%	-10.1996
と同じく	-10.1997
ai	-10.1998
政治家	-10.2001
地名	-10.2002
外国人	-10.2003
文庫	-10.2008
利益	-10.2013
一般に	-10.2016
大学院	-10.202
規則	-10.2021
それは	-10.203
戦線	-10.2036
参照	-10.2036
人に	-10.2038
本人	-10.2044
フー	-10.2047
ヶ	-10.2049
ベルト	-10.2051
チョ	-10.2057
高さ	-10.2062
sf	-10.2063
受賞	-10.2066
潮	-10.2072
フィルム	-10.2072
事情	-10.2072
を求める	-10.2077
範囲	-10.2077
研究者	-10.2082
立場	-10.2092
di	-10.2093
全米	-10.2095
ヴァル	-10.2097
全く	-10.2099
アラ	-10.2102
に位置し	-10.2103
分け	-10.2105
体験	-10.2107
すなわち	-10.2109
兵庫県	-10.211
るようになった	-10.2115
が高い	-10.212
軍団	-10.2124
玄	-10.2127
試み	-10.2127
未来	-10.2128
暗	-10.2133
に就任した	-10.2134
プル	-10.2135
問	-10.2141
中学	-10.2144
国境	-10.2145
展	-10.2145
進行	-10.2147
苦	-10.2148
おか	-10.2149
感じ	-10.215
防御率	-10.2153
耳	-10.2153
不明	-10.2155
インディアン	-10.2156
op	-10.2156
身体	-10.2158
麻	-10.2159
予算	-10.216
マク	-10.2162
アクション	-10.217
創	-10.2171
そのもの	-10.2173
の子	-10.2175
峰	-10.2177
ヴィン	-10.2182
であれば	-10.2183
沖	-10.2183
養	-10.2185
父親	-10.2196
ティング	-10.2197
hi	-10.2198
▁h	-10.2198
習	-10.2203
獣	-10.2203
らず	-10.2208
注意	-10.2208
サラ	-10.2215
1998	-10.2216
捜査	-10.2225
ネル	-10.2227
ケル	-10.2234
厳	-10.2237
ヘンリー	-10.2242
加入	-10.2243
96	-10.2248
世界選手権	-10.2255
年生	-10.2257
月場所	-10.2259
特急	-10.2259
状の	-10.226
87	-10.2261
プロデュース	-10.2262
落ち	-10.2262
修正	-10.2264
なければならない	-10.2266
ウクライナ	-10.2267
艇	-10.2268
判断	-10.227
新宿	-10.227
執行	-10.2271
解説	-10.2272
pe	-10.2279
を発表	-10.228
アム	-10.2286
判定	-10.2287
最多	-10.2288
んでいる	-10.2291
ショ	-10.2292
子は	-10.2292
チームは	-10.2293
兵衛	-10.2296
かず	-10.2297
um	-10.2297
現場	-10.2304
76	-10.2305
算	-10.2312
復	-10.2315
負け	-10.2315
適	-10.2316
写	-10.2318
67	-10.2318
建造	-10.2323
実際には	-10.2323
ロサンゼルス	-10.2325
虎	-10.2326
両親	-10.233
外交	-10.2331
機会	-10.2333
大学の	-10.2341
深い	-10.2346
仙	-10.2347
サポート	-10.235
鏡	-10.2351
マッ	-10.2352
を行っていた	-10.2354
することが	-10.2357
材料	-10.236
議長	-10.2362
低下	-10.2365
守備	-10.2366
承認	-10.237
以前の	-10.2372
そこで	-10.2382
現在では	-10.2393
歴代	-10.2393
▁1989	-10.2398
人民	-10.2399
費用	-10.2399
卒	-10.24
営業所	-10.2403
ベルク	-10.2403
分割	-10.2405
リリースされた	-10.2406
高橋	-10.2408
灯	-10.2416
用語	-10.2422
チャン	-10.2423
行われる	-10.2425
人々	-10.2428
することになった	-10.2432
▁こうした	-10.2432
力を	-10.2434
ワイン	-10.2435
スコットランド	-10.244
先発	-10.2441
その他	-10.2444
☆	-10.2444
▁しかしながら	-10.2448
勤務	-10.2459
描写	-10.2459
をもつ	-10.2462
工学	-10.2462
贈	-10.2469
ただし	-10.247
ウッド	-10.2472
ja	-10.2477
権力	-10.2481
こそ	-10.2483
イスラエル	-10.2485
たため	-10.2486
画像	-10.2489
手紙	-10.249
▁j	-10.2492
芝	-10.2493
審査	-10.2494
結局	-10.2495
▁新	-10.2495
沈	-10.2498
山脈	-10.25
地元の	-10.2505
リーダー	-10.2509
の後	-10.2512
を持っている	-10.2512
トーク	-10.2522
戦闘機	-10.2522
模様	-10.2527
-5	-10.2529
マッチ	-10.2534
am	-10.2539
されること	-10.2541
が行われている	-10.2542
閉鎖	-10.2552
レル	-10.2553
フィリピン	-10.2559
衆	-10.2567
清水	-10.2569
守護	-10.257
▁i	-10.2571
再建	-10.2576
藩主	-10.258
義務	-10.2584
ポルトガル	-10.2585
日本では	-10.2587
と同	-10.2592
サブ	-10.2593
沿岸	-10.2594
記憶	-10.2597
晴	-10.2597
ヘッド	-10.26
政府は	-10.26
軒	-10.2603
西側	-10.2606
パイロット	-10.2609
相互	-10.2609
状態で	-10.2611
開発された	-10.2613
芳	-10.2616
にまで	-10.2618
司令官	-10.2618
遺伝子	-10.2621
今日	-10.2629
上陸	-10.2635
液	-10.2638
市にある	-10.2642
左右	-10.2642
▁1960	-10.2643
高度	-10.2645
定期	-10.2648
神奈川県	-10.2649
アニメーション	-10.2652
長く	-10.2664
紅	-10.2675
、2003	-10.2677
峠	-10.2678
の使用	-10.2679
リード	-10.2688
はほとんど	-10.2693
覚	-10.2696
危険	-10.2709
完全に	-10.2709
分布	-10.2711
代わりに	-10.2712
▁旧	-10.2715
も多く	-10.2718
込んで	-10.2722
ラブ	-10.2722
、2019	-10.2723
有効	-10.2728
人で	-10.273
シス	-10.2733
効率	-10.2734
敏	-10.2736
学習	-10.2737
mc	-10.2737
は主に	-10.2741
陵	-10.2742
温度	-10.2742
69	-10.2742
隠	-10.2747
願	-10.2748
シーズンは	-10.2755
地域の	-10.2756
グロ	-10.2758
スタン	-10.276
登板	-10.276
カリ	-10.2769
静岡県	-10.2769
文献	-10.2777
楽器	-10.2779
寛	-10.2781
らは	-10.2787
短い	-10.2787
注	-10.279
可能性がある	-10.2793
るため	-10.2795
ながらも	-10.2796
妹	-10.2799
進化	-10.28
先行	-10.28
違い	-10.2802
夫人	-10.2803
劇団	-10.2804
わずか	-10.2805
ab	-10.2807
主な	-10.2813
数字	-10.2813
姿勢	-10.2814
生涯	-10.2822
主体	-10.2823
ステークス	-10.2831
を得て	-10.2831
開設	-10.2831
確保	-10.2833
ベトナム	-10.2839
オフ	-10.2845
原因	-10.2847
通過	-10.2847
を中心とした	-10.2847
ダウン	-10.2848
施行	-10.2849
扉	-10.285
さい	-10.2854
°	-10.2854
が見られる	-10.2856
1996	-10.2856
刑事	-10.2857
様子	-10.2858
されない	-10.286
衛	-10.2865
このような	-10.2866
再開	-10.2866
のことである	-10.2867
を目指す	-10.2868
個の	-10.2869
しても	-10.2869
1997	-10.2876
つつ	-10.2876
演	-10.2877
勇	-10.2877
尚	-10.2878
区分	-10.288
感染	-10.2881
mp	-10.2881
、1980	-10.2882
モル	-10.2882
79	-10.2883
日現在	-10.2885
の下	-10.2888
に生まれる	-10.2892
東日本	-10.2901
廃止された	-10.2903
伯爵	-10.2905
おう	-10.2905
アメリカン	-10.2906
創立	-10.2913
と思われる	-10.2916
彼らの	-10.2917
空軍	-10.2917
巣	-10.2918
再度	-10.292
単独	-10.292
北京	-10.2921
を使用する	-10.2922
のない	-10.2925
インタビュー	-10.2928
取材	-10.2935
交代	-10.2938
ワー	-10.2938
アクセス	-10.2941
ポート	-10.2941
に相当する	-10.2941
絵画	-10.2943
メール	-10.2944
に当たる	-10.2948
照	-10.2949
浩	-10.2951
皇	-10.2951
ec	-10.2953
アート	-10.2959
背景	-10.2961
ラル	-10.2965
キャラ	-10.2966
小さい	-10.2972
フェル	-10.2972
福島	-10.2973
彼女	-10.2974
激しい	-10.298
伊藤	-10.2987
虫	-10.2989
普及	-10.2989
石油	-10.2995
抗	-10.2997
資源	-10.3
保険	-10.3006
持つ	-10.3008
松本	-10.301
リズム	-10.3015
無線	-10.3019
儀	-10.3019
公共	-10.302
桂	-10.3022
ネー	-10.3023
示	-10.3024
駅前	-10.3025
チームの	-10.3025
ろう	-10.3031
全員	-10.3032
オリ	-10.3032
改修	-10.3037
と同様	-10.304
に向けて	-10.3043
返	-10.3044
ジャンル	-10.3044
場合がある	-10.3045
リュー	-10.3046
▁この時	-10.3055
ビッグ	-10.3058
デモ	-10.3059
談	-10.3061
大きい	-10.3066
単に	-10.3067
スイス	-10.3068
対戦	-10.307
ート	-10.3071
逃げ	-10.3081
反乱	-10.3081
憲	-10.3082
日発売	-10.3084
ストリート	-10.3087
イラスト	-10.3094
倒	-10.3094
東西	-10.3094
に移籍	-10.3097
亀	-10.3103
ガラス	-10.3104
遅れ	-10.3104
功	-10.3108
刊	-10.311
監督の	-10.3116
シカゴ	-10.3124
年頃	-10.3124
ディング	-10.3126
機種	-10.3128
中間	-10.3128
先に	-10.313
されなかった	-10.3133
▁戦後	-10.3134
案内	-10.3134
予想	-10.3135
熊本	-10.3137
io	-10.3138
的には	-10.3147
の建設	-10.3149
▁以後	-10.3153
でもあった	-10.3154
日本軍	-10.3155
ジャズ	-10.3155
活躍	-10.3156
復興	-10.316
良い	-10.3164
を作る	-10.3165
四国	-10.3167
人と	-10.3168
年代の	-10.3174
小林	-10.3176
側は	-10.3176
句	-10.3179
をしていた	-10.3181
作詞	-10.3181
を用いる	-10.3182
全長	-10.3187
▁1988	-10.3191
打撃	-10.3192
られていた	-10.3195
少し	-10.3208
推薦	-10.3208
殺害	-10.3209
スコ	-10.3209
観客	-10.3214
負担	-10.3214
ts	-10.3215
のもと	-10.3217
上海	-10.3221
念	-10.3221
証明	-10.3223
ドリ	-10.3224
東映	-10.3224
経緯	-10.3225
入団	-10.3231
1960	-10.3233
急行	-10.3241
ごろ	-10.3243
印刷	-10.3244
駅から	-10.3245
除	-10.3247
レコーディング	-10.3253
ネイ	-10.3255
顧問	-10.3256
の意味	-10.3262
てしまった	-10.3265
書籍	-10.3266
息	-10.3266
▁la	-10.327
少ない	-10.3272
になっていた	-10.3274
深夜	-10.3275
戻	-10.3279
マスター	-10.328
岡山	-10.3281
証拠	-10.3281
ばかり	-10.3288
ap	-10.3292
気候	-10.3299
1995	-10.33
▁v	-10.3303
項目	-10.3305
試合で	-10.3306
由	-10.3306
su	-10.3307
若い	-10.3308
ヒト	-10.3309
一覧	-10.3312
-0	-10.3323
二人	-10.3324
コスト	-10.3328
希望	-10.333
として知られる	-10.3331
高等	-10.3333
制定	-10.3336
ve	-10.3337
ヴィー	-10.3339
合同	-10.3343
価	-10.3343
ウィーン	-10.3344
ヘン	-10.3344
が可能	-10.3345
ラグビー	-10.335
を持った	-10.335
海上	-10.3351
済	-10.3352
ぞ	-10.3352
援助	-10.3357
領土	-10.3359
種類の	-10.3364
脇	-10.3369
縦	-10.3369
福岡県	-10.3372
ミュージシャン	-10.3372
トゥー	-10.3375
74	-10.3377
行った	-10.3377
ir	-10.3378
故障	-10.338
戦隊	-10.3383
流通	-10.3386
_1	-10.3387
:"	-10.339
外国	-10.3391
スカ	-10.3399
ベルギー	-10.34
行われ	-10.3401
ナル	-10.3406
音声	-10.3417
かな	-10.3417
柔道	-10.342
東洋	-10.3421
フジテレビ	-10.3423
臨時	-10.3423
なった	-10.3426
雷	-10.3432
病気	-10.3432
人生	-10.3435
るが	-10.3436
護衛	-10.3439
97	-10.3441
加工	-10.3443
ッタ	-10.3444
サム	-10.3444
妙	-10.3448
島の	-10.3449
プロレス	-10.3449
かなり	-10.3453
、2002	-10.3454
斎	-10.3461
それに	-10.3463
フランス語	-10.3465
偽	-10.3467
歴	-10.3468
賞を受賞	-10.347
してしまう	-10.3471
肩	-10.3473
中世	-10.3474
実際の	-10.3475
いている	-10.3477
加藤	-10.3477
モンゴル	-10.3477
▁1987	-10.3478
アメリカ軍	-10.3483
彼ら	-10.3485
ならば	-10.3486
であったため	-10.3488
無料	-10.3491
南西	-10.3492
も存在する	-10.3501
逆に	-10.3502
類似	-10.3506
流行	-10.3507
作品は	-10.3508
期の	-10.3509
コンセプト	-10.3512
岳	-10.3513
通じ	-10.3514
まった	-10.3518
男女	-10.3522
投げ	-10.3523
の作品	-10.3527
テレビアニメ	-10.3527
についての	-10.3527
する事	-10.3532
胸	-10.3534
録	-10.3538
ステーション	-10.354
広場	-10.3542
大学で	-10.3542
大手	-10.3544
言う	-10.3546
との間に	-10.3551
措置	-10.3552
打点	-10.3554
ジェームズ	-10.3558
per	-10.3558
現役	-10.356
集中	-10.3564
89	-10.3565
!!	-10.3565
それら	-10.3566
移民	-10.3571
掛け	-10.3573
浪	-10.3573
を担当した	-10.3577
新規	-10.3579
すぐ	-10.3582
番目の	-10.3583
誘導	-10.3584
下げ	-10.3584
ph	-10.3584
原則	-10.3588
を開始	-10.3589
個体	-10.3591
▁当時の	-10.3594
するもの	-10.3595
ドライバー	-10.3596
保有	-10.3598
手段	-10.3599
かれ	-10.3602
順位	-10.3604
酸化	-10.3606
主催	-10.3615
季	-10.3616
ント	-10.362
岐阜県	-10.3624
駒	-10.3625
部品	-10.3631
機の	-10.3633
の一種	-10.3634
チャールズ	-10.3639
▁r	-10.364
ウイルス	-10.364
幼	-10.364
イラン	-10.364
外部	-10.3646
現地	-10.3649
バーグ	-10.3649
こともあった	-10.3655
▁me	-10.3656
しま	-10.3657
依頼	-10.3657
分裂	-10.3658
作者	-10.3663
上映	-10.3664
デンマーク	-10.3665
笠	-10.3669
72	-10.3671
幹部	-10.3672
発言	-10.3672
放送された	-10.3672
5000	-10.3673
旅客	-10.3676
一つ	-10.3681
需要	-10.3681
立て	-10.3682
当駅	-10.3688
ツァ	-10.369
緊急	-10.3691
痛	-10.3691
秘密	-10.3692
開通	-10.3693
イヤー	-10.3697
増加	-10.37
プロ野球	-10.3706
▁身長	-10.3711
ぶり	-10.3715
使われ	-10.3716
84	-10.3717
ジャンプ	-10.3718
120	-10.3719
浮	-10.372
以降の	-10.3727
▁be	-10.3731
▁これら	-10.3734
単行本	-10.3738
概念	-10.3741
司法	-10.3742
閉	-10.3746
推定	-10.3747
役割	-10.3747
ード	-10.3749
nd	-10.3749
であろう	-10.3749
測定	-10.375
ビア	-10.3751
の世界	-10.3752
1994	-10.3764
jo	-10.3765
労	-10.3765
ガイ	-10.3774
吹	-10.3774
収入	-10.3775
郊外	-10.3778
するまで	-10.3779
災害	-10.3779
ても	-10.3779
新潟県	-10.3779
-7	-10.378
牧	-10.3781
を獲得	-10.3781
に基づき	-10.3782
斉	-10.3783
に伴う	-10.3785
修道院	-10.3788
▁co	-10.3794
といわれる	-10.3798
テロ	-10.3813
双	-10.3813
新潟	-10.3815
卿	-10.3822
ロボット	-10.3823
アイテム	-10.3824
に加えて	-10.3828
症状	-10.3829
が異なる	-10.3833
活用	-10.3834
負傷	-10.3835
双方	-10.3835
行う	-10.3836
弥	-10.3836
マイケル	-10.3842
買収	-10.3843
軍人	-10.3846
活	-10.3846
舎	-10.3847
変換	-10.385
本名	-10.3853
北朝鮮	-10.3853
後述	-10.3857
航	-10.3858
▁1986	-10.3858
こととなった	-10.3867
va	-10.3872
自体	-10.3876
長男	-10.3878
1993	-10.388
〜』	-10.3882
著	-10.3883
命名	-10.3883
これに	-10.3886
両編成	-10.3887
部に	-10.3888
ニング	-10.3893
160	-10.3895
政治的	-10.3898
、1970	-10.39
線路	-10.39
カトリック	-10.3905
誠	-10.3905
テー	-10.3907
していった	-10.3912
社会主義	-10.3913
彩	-10.3913
1992	-10.3915
まれ	-10.3916
体重	-10.3917
梁	-10.3921
一連の	-10.393
使用する	-10.393
屋根	-10.3933
台車	-10.3933
軍が	-10.3936
合う	-10.3938
離脱	-10.394
ネタ	-10.3941
できず	-10.3944
働き	-10.3947
必要がある	-10.3947
をリリース	-10.3947
に基づいて	-10.3965
枚目のシングル	-10.3969
常に	-10.3971
体系	-10.3974
籍	-10.3974
を果たす	-10.3974
ホワイト	-10.398
チュー	-10.3982
駅舎	-10.3982
ました	-10.3988
ライフ	-10.3989
ロール	-10.3991
又は	-10.3991
、2001	-10.3992
po	-10.3993
▁1985	-10.3993
スポンサー	-10.3994
地に	-10.3995
▁l	-10.3995
州の	-10.3996
wa	-10.4002
インチ	-10.4003
は全て	-10.4005
転換	-10.401
ティン	-10.401
消費	-10.401
▁x	-10.4018
せる	-10.4018
がわ	-10.4019
須	-10.4023
印象	-10.4024
基礎	-10.403
ることができる	-10.403
之助	-10.403
ホル	-10.4031
古典	-10.4032
挑戦	-10.4033
数が	-10.4034
共産党	-10.4036
にいた	-10.4045
選抜	-10.4048
支	-10.4051
桁	-10.4055
全体の	-10.4057
73	-10.4059
資産	-10.406
株式	-10.406
西日本	-10.4065
れた	-10.4067
豪	-10.4067
の多くは	-10.4068
審	-10.4068
ボス	-10.4071
決	-10.4072
と述べた	-10.4072
ブラン	-10.4074
ないし	-10.4075
子が	-10.4076
パート	-10.4077
寄り	-10.4079
猫	-10.4081
レオ	-10.4082
高く	-10.4085
ロウ	-10.4085
合わせ	-10.4085
絶対	-10.4085
▁ここで	-10.4087
厚	-10.409
原題	-10.4091
ウェル	-10.4091
記号	-10.4092
継	-10.4095
の特徴	-10.4097
人類	-10.4104
興行	-10.4105
83	-10.4106
発達	-10.4109
池田	-10.4114
cs	-10.4114
祐	-10.4116
ひろ	-10.4117
中山	-10.4118
屋敷	-10.4121
▁ma	-10.4122
ということ	-10.4126
第二次世界大戦	-10.4126
危機	-10.4127
web	-10.4136
新人	-10.4137
サウンド	-10.414
するも	-10.4142
伸び	-10.4143
浅	-10.4143
抜け	-10.4145
解析	-10.4149
挙	-10.4152
-8	-10.4152
貫	-10.4156
ラウ	-10.4157
日本代表	-10.4158
事務	-10.416
開幕	-10.4163
指摘	-10.4166
ヌー	-10.4167
オート	-10.417
自宅	-10.417
iv	-10.4171
成分	-10.4171
強制	-10.4172
桃	-10.418
の戦いで	-10.4182
C	-10.4182
売り	-10.4184
侯	-10.4187
▁彼の	-10.4189
追い	-10.419
伝承	-10.4191
やがて	-10.4194
抗議	-10.4198
1991	-10.4198
場面	-10.42
監視	-10.42
人である	-10.4202
社の	-10.4206
巨人	-10.421
あらゆる	-10.4211
から発売された	-10.4213
一帯	-10.4214
ヘイ	-10.4216
上野	-10.4217
のみならず	-10.4224
カム	-10.4226
に終わった	-10.4229
深く	-10.4231
辞	-10.4231
井上	-10.4233
過程	-10.4233
カス	-10.4233
安打	-10.4236
補助	-10.4236
女王	-10.4242
襲撃	-10.4247
激	-10.4249
さえ	-10.4252
カレッジ	-10.4254
蓮	-10.4256
ru	-10.4256
を見て	-10.4257
iii	-10.4257
対抗	-10.4261
焼き	-10.4262
▁u	-10.4266
北西	-10.4266
生命	-10.4267
ユース	-10.427
eu	-10.4276
を使った	-10.4276
日に行われた	-10.4277
移籍	-10.4279
以前	-10.428
大字	-10.4284
悪化	-10.4285
▁北	-10.4289
アマチュア	-10.4289
の父	-10.4291
料金	-10.4292
との関係	-10.4292
81	-10.4294
ボーカル	-10.4297
火災	-10.4298
王子	-10.43
寒	-10.4304
がなく	-10.4312
少なくとも	-10.4313
奴隷	-10.4314
エース	-10.4315
魂	-10.4319
に参加し	-10.432
世が	-10.4322
居住	-10.4324
ジム	-10.4328
毎日	-10.433
分岐	-10.4331
ディスク	-10.4332
と言われている	-10.4337
雇用	-10.4339
分解	-10.4348
に応じて	-10.4348
歩兵	-10.4348
塾	-10.4348
lu	-10.4348
当該	-10.4351
渡辺	-10.4352
載	-10.4352
同様に	-10.4358
漢字	-10.4358
im	-10.4359
西武	-10.4362
fe	-10.4365
ニック	-10.4369
話題	-10.4369
敗退	-10.437
の中でも	-10.4371
演技	-10.4372
洲	-10.4373
司令部	-10.4373
フィンランド	-10.4385
フランク	-10.4386
ソウル	-10.4389
脱退	-10.4392
奈良	-10.4393
ストラ	-10.4394
一般的に	-10.4395
巡	-10.4396
支部	-10.4397
脱出	-10.4397
洞	-10.4397
家臣	-10.4397
利用者	-10.4401
近い	-10.4402
公式サイト	-10.4402
夕	-10.4402
があるが	-10.4406
しばらく	-10.4406
提出	-10.4406
委員長	-10.4406
しているが	-10.4408
数学	-10.441
南北	-10.4413
▁その後も	-10.4413
押	-10.4414
財	-10.4416
事実上	-10.442
ムー	-10.4427
記者	-10.443
ヤー	-10.443
ローカル	-10.443
鳴	-10.4431
否定	-10.4432
逮捕	-10.4432
独立した	-10.4434
下り	-10.4434
方言	-10.4435
が始まった	-10.4437
実績	-10.4441
年代から	-10.4443
に選ばれた	-10.4445
▁東	-10.4445
▁株式会社	-10.4446
用に	-10.4447
観察	-10.4452
しき	-10.4452
ものだった	-10.4453
最優秀	-10.4458
つけ	-10.4459
バトル	-10.4459
王朝	-10.4461
一家	-10.4464
シート	-10.4466
▁当初	-10.4467
振興	-10.4469
相当	-10.4469
リーグ戦	-10.447
▁1984	-10.4474
ころ	-10.4475
育成	-10.4476
てい	-10.4477
免許	-10.4478
700	-10.448
を見せ	-10.4484
を持って	-10.4485
それらの	-10.4486
終わり	-10.4487
投稿	-10.4488
der	-10.4489
と語っている	-10.4491
如	-10.4492
性質	-10.4496
旨	-10.4498
▁アメリカ	-10.45
まち	-10.4502
乗り	-10.4504
1989	-10.4505
袋	-10.4507
コレクション	-10.4507
続けた	-10.4507
メー	-10.4511
修理	-10.4513
を作り	-10.4513
ヤード	-10.4514
自転車	-10.4516
頃から	-10.4521
寝	-10.4522
を最後に	-10.4524
ゲイ	-10.4524
▁このとき	-10.4532
穂	-10.4532
臨	-10.4534
同様の	-10.4535
『』	-10.4535
奇	-10.4536
ya	-10.4544
判	-10.4547
粒子	-10.455
包囲	-10.455
にした	-10.4551
んでいた	-10.4551
用途	-10.4553
主要な	-10.4553
社員	-10.4555
予備	-10.4555
敗北	-10.4556
内容は	-10.4556
新幹線	-10.4558
中華人民共和国	-10.4558
暴	-10.4559
▁1945	-10.4562
グレ	-10.4564
学術	-10.4565
優れた	-10.4568
ロング	-10.457
はじめ	-10.4571
練	-10.4572
飛び	-10.4573
に出	-10.4574
づ	-10.4574
▁ポジションは	-10.4577
を与え	-10.4581
ティス	-10.4585
なん	-10.4585
棒	-10.4591
犯	-10.4598
マリー	-10.4599
ドイツ語	-10.4599
往復	-10.4601
創業	-10.4604
市街地	-10.4604
は非常に	-10.4605
切れ	-10.4606
少将	-10.461
ゴールド	-10.4611
捕虜	-10.4614
唯一	-10.462
出された	-10.4628
の名称	-10.4628
刻	-10.463
の方が	-10.4634
したという	-10.4639
闘	-10.4645
茨城県	-10.4645
庫	-10.4647
ian	-10.4647
民主	-10.4652
言い	-10.4653
の際	-10.4653
を使う	-10.4656
見解	-10.4658
net	-10.4659
ていなかった	-10.4664
が開始された	-10.4668
中国の	-10.4668
ヨー	-10.467
かどうか	-10.4671
るなど	-10.4674
くる	-10.4674
代替	-10.4676
先端	-10.4679
最後に	-10.4686
程度の	-10.4687
出来事	-10.4692
生成	-10.4696
溝	-10.4702
の中には	-10.4702
伸	-10.4703
よし	-10.4703
議席	-10.4705
強く	-10.4706
採	-10.4708
熊	-10.4711
今後	-10.4714
詩人	-10.4715
ジャケット	-10.4716
ie	-10.4717
dr	-10.472
ブルク	-10.4722
の他	-10.4723
直後に	-10.4723
頭部	-10.4725
彼女は	-10.4725
前述の	-10.4726
防止	-10.4728
bi	-10.4728
札	-10.4729
に乗り	-10.473
3000	-10.4732
著書	-10.4734
に入	-10.4735
リチャード	-10.4738
放送局	-10.4739
砦	-10.474
世帯	-10.4743
賞を受賞した	-10.4744
事を	-10.4744
過去に	-10.4745
フロント	-10.4746
坊	-10.4746
に合わせて	-10.4749
公認	-10.475
ものがある	-10.4752
パフォーマンス	-10.4754
と言われる	-10.4756
されると	-10.4757
銀河	-10.4758
スピード	-10.476
国会	-10.4767
詞	-10.4769
付属	-10.4772
大佐	-10.4773
秦	-10.4773
約束	-10.4775
age	-10.4777
82	-10.4777
–	-10.4784
発足	-10.4788
一定	-10.4789
ラウンド	-10.4789
ゲー	-10.4793
250	-10.4793
大阪市	-10.4795
年の第	-10.4795
秋田	-10.4799
もまた	-10.4801
を与える	-10.4801
堅	-10.4802
に変更された	-10.4804
トーナメント	-10.4807
同時	-10.4813
福島県	-10.4816
コス	-10.4819
ボディ	-10.482
に向かう	-10.4825
周囲	-10.4826
弟子	-10.4827
抜き	-10.4828
石川	-10.4828
メッセージ	-10.4829
に次ぐ	-10.483
ヴィル	-10.4838
に入社	-10.4839
優先	-10.4844
束	-10.4845
証言	-10.4845
教え	-10.4848
立候補	-10.4852
ブラウン	-10.4852
引き続き	-10.4852
申請	-10.4855
好き	-10.4857
ブック	-10.4857
さない	-10.4858
タンパク質	-10.4859
を始める	-10.4859
主力	-10.486
宣伝	-10.4862
沙	-10.4867
ディズニー	-10.4868
となったが	-10.4868
僕	-10.4869
台風	-10.4872
父の	-10.4874
植	-10.4874
もっとも	-10.4875
上下	-10.4881
コロ	-10.4882
局長	-10.4882
▁その後は	-10.4882
選出	-10.4883
接触	-10.4887
うる	-10.4888
通行	-10.4889
編曲	-10.4891
人間の	-10.4891
大使	-10.4901
鷹	-10.4904
軍隊	-10.4904
封	-10.4905
来日	-10.4907
西洋	-10.4909
水素	-10.4909
長野県	-10.4909
全域	-10.4912
きゅう	-10.4913
ゼロ	-10.4914
ローズ	-10.4914
の関係	-10.4916
消防	-10.4916
火山	-10.4918
茎	-10.4919
座席	-10.492
神話	-10.492
▁1983	-10.4921
キャスト	-10.4924
資	-10.4926
帳	-10.4926
キロ	-10.4926
プラン	-10.4927
球場	-10.4927
を利用して	-10.4929
を除き	-10.493
どの	-10.4932
で最も	-10.4933
包	-10.4934
警備	-10.4942
再編	-10.4947
エリ	-10.4947
▁小	-10.4947
滑	-10.495
菊	-10.4951
バーン	-10.4951
エレ	-10.4958
年以上	-10.4959
承	-10.4959
大隊	-10.496
帰還	-10.4961
平日	-10.4963
バリ	-10.4963
入力	-10.4966
ハワイ	-10.4967
マルチ	-10.497
揚	-10.497
を描く	-10.497
のに対し	-10.4971
周辺の	-10.4972
ひとつ	-10.4977
宏	-10.4977
一致	-10.4977
キャンパス	-10.4977
質量	-10.4978
を持っていた	-10.4979
特性	-10.4984
織	-10.4986
ツー	-10.4986
迫	-10.499
を使用した	-10.4993
要因	-10.4995
韓	-10.4997
いう	-10.4997
ity	-10.4999
アルゼンチン	-10.5
隣	-10.5
は以下の通り	-10.5005
ける	-10.5007
1988	-10.5007
言及	-10.5008
レール	-10.5012
私立	-10.5013
当て	-10.5014
するようになった	-10.5015
森林	-10.5016
vo	-10.5018
▁1950	-10.5021
いだ	-10.5022
経路	-10.5025
を打ち	-10.5025
魔法	-10.5025
当局	-10.5032
▁14	-10.5033
現在でも	-10.5033
ただ	-10.504
事例	-10.5041
自社	-10.5043
uefa	-10.5044
グランド	-10.5046
著作	-10.5048
、1999	-10.5048
▁かつて	-10.5053
自民党	-10.5057
止め	-10.5057
連結	-10.5061
成果	-10.5063
コンビ	-10.5063
主導	-10.5064
使い	-10.5068
暗殺	-10.5069
栗	-10.507
ポジション	-10.507
rs	-10.5071
川崎	-10.508
回目の	-10.5081
コミュニティ	-10.5083
170	-10.5083
一定の	-10.5085
損傷	-10.5087
ノルウェー	-10.5087
国際空港	-10.5089
そこに	-10.5091
ドール	-10.5093
訴訟	-10.5094
ウン	-10.5095
バッハ	-10.5096
律	-10.5097
オーディション	-10.5097
クラシック	-10.5099
ション	-10.5101
自動車道	-10.5103
ッカ	-10.5104
弓	-10.5111
始める	-10.5113
授業	-10.5115
ウォー	-10.5115
メガ	-10.5118
侍	-10.5121
払	-10.5121
作品を	-10.5122
ファッション	-10.5123
ごく	-10.5127
ロイ	-10.5127
ているが	-10.5128
-9	-10.5132
北東	-10.5134
司会	-10.5137
オンライン	-10.5139
端末	-10.5145
するよう	-10.5145
三菱	-10.5148
舟	-10.5152
しゅう	-10.5152
再現	-10.5153
ビュー	-10.5153
月現在	-10.5154
に取り	-10.5158
総督	-10.516
離婚	-10.5162
我	-10.5163
然	-10.5164
死亡した	-10.5164
到着	-10.5165
かけ	-10.5166
競馬場	-10.5167
ピーター	-10.5167
メント	-10.5168
県道	-10.5172
置き換え	-10.5173
ハート	-10.5175
降格	-10.5176
基盤	-10.5178
発明	-10.5179
日付で	-10.5179
を代表する	-10.5181
ゆう	-10.5185
tt	-10.5188
平野	-10.5189
を出した	-10.519
本来	-10.5202
地形	-10.5202
つか	-10.5206
特許	-10.5207
理事長	-10.5208
メス	-10.5208
mon	-10.5209
書かれた	-10.5212
邸	-10.5213
続	-10.5215
リスク	-10.522
嶋	-10.5221
コート	-10.5221
しりつ	-10.5222
fi	-10.5223
ほとんどの	-10.5224
を結成	-10.5236
▁〜	-10.5244
しようと	-10.5244
指示	-10.5247
陸上	-10.5248
の仕事	-10.5255
意図	-10.526
ton	-10.5262
形の	-10.5263
福祉	-10.5264
権限	-10.5266
で放送された	-10.5267
文明	-10.5267
ライセンス	-10.5271
糖	-10.5271
▁1982	-10.5271
腰	-10.5272
地位	-10.5273
拒否	-10.5273
という言葉	-10.5274
聴	-10.5276
に向かって	-10.5278
tu	-10.5279
モノ	-10.5284
宋	-10.5284
テニス	-10.529
資本	-10.5292
正式	-10.5294
中期	-10.5296
右衛門	-10.5297
待	-10.5298
に出演	-10.5299
いたが	-10.53
世紀に	-10.5307
られて	-10.5311
海洋	-10.5312
北米	-10.5319
運航	-10.5323
解除	-10.5324
まつ	-10.5325
▁これが	-10.5326
時代は	-10.5329
名義	-10.533
スミス	-10.5332
操縦	-10.5333
パターン	-10.5337
行く	-10.5339
三重県	-10.534
自分が	-10.5343
フォル	-10.5344
鎌倉	-10.5349
頃に	-10.5352
線が	-10.5354
スカイ	-10.5356
際には	-10.5358
時代には	-10.5362
らと	-10.5362
で初めて	-10.5365
菜	-10.5366
商人	-10.5367
ul	-10.5368
使われている	-10.5369
盗	-10.5371
ボックス	-10.5371
号機	-10.5374
ジェット	-10.5374
シリア	-10.5377
マラ	-10.5377
伝統	-10.5379
投入	-10.538
消滅	-10.538
薄	-10.5382
発売された	-10.5384
戦艦	-10.5385
功績	-10.5385
パイ	-10.5385
初め	-10.5387
ーニ	-10.5388
防御	-10.5389
スキ	-10.5391
いくつか	-10.5394
▁con	-10.5396
確定	-10.5396
皆	-10.5402
職業	-10.5404
教員	-10.541
ゼン	-10.5412
不動産	-10.5413
▁st	-10.5415
でない	-10.5416
レーダー	-10.5417
回戦	-10.5419
を開催	-10.5419
紛争	-10.542
ロゴ	-10.5423
われ	-10.5425
尻	-10.5426
猛	-10.5428
かく	-10.5434
ヤング	-10.5435
であっても	-10.5436
本土	-10.5436
クロー	-10.5439
中央部	-10.5441
ナンバー	-10.5446
前期	-10.5447
カリフォルニア州	-10.5449
存続	-10.5454
巨大な	-10.5458
ガンダム	-10.5461
京都府	-10.5462
のこと	-10.5462
バイパス	-10.5462
丹	-10.5463
極めて	-10.5464
組み	-10.5464
明らかに	-10.5471
鼻	-10.5472
連勝	-10.5478
じん	-10.5478
1987	-10.5479
者に	-10.548
負	-10.5482
なかったため	-10.5482
らしい	-10.5483
一軍	-10.5484
大将	-10.5485
応用	-10.5487
▁ところが	-10.5488
課題	-10.5489
を務めていた	-10.549
庄	-10.5491
訪問	-10.5491
作られた	-10.5492
限	-10.5495
の地位	-10.5497
ラント	-10.5498
ここで	-10.5499
そのような	-10.5501
南側	-10.5509
間で	-10.5511
確立	-10.5512
曹	-10.5515
ることになった	-10.5517
one	-10.5518
氏は	-10.552
五郎	-10.552
と呼ばれている	-10.5521
ジェイ	-10.5523
協	-10.5524
渋谷	-10.5526
供	-10.553
ギー	-10.5531
ものもある	-10.5533
gt	-10.5535
うえ	-10.5537
windows	-10.5539
海峡	-10.5539
をはじめとする	-10.5547
▁1979	-10.5547
疾患	-10.5551
祭り	-10.5552
笑	-10.5555
本体	-10.5555
相撲	-10.5556
レストラン	-10.5558
豆	-10.556
二つの	-10.5561
が発表された	-10.5563
の中から	-10.5563
チャート	-10.5564
年後の	-10.5565
家は	-10.5568
反発	-10.5571
が発生し	-10.5572
▁ただ	-10.5574
秘	-10.5574
原子	-10.5579
ディレクター	-10.558
向けに	-10.5584
ers	-10.5588
静岡	-10.559
、1998	-10.5592
ピア	-10.5593
ポスト	-10.5597
スパイ	-10.5597
指揮官	-10.56
があったが	-10.56
起用	-10.56
の中では	-10.5602
▁1981	-10.5603
手術	-10.5604
コア	-10.5605
スー	-10.5605
時計	-10.5605
ーナ	-10.5607
上がり	-10.5609
数多くの	-10.561
が大きく	-10.5613
ルト	-10.5613
インターチェンジ	-10.5614
は日本の	-10.5614
恩	-10.5619
蘭	-10.562
sh	-10.562
ついに	-10.562
が設置されている	-10.5622
パートナー	-10.5623
》	-10.5623
、1997	-10.5624
故郷	-10.5625
▁n	-10.5625
を設立	-10.5626
時から	-10.5627
《	-10.5631
前半	-10.564
因	-10.5643
ウー	-10.5645
荷	-10.5645
発音	-10.5647
課程	-10.5648
クリア	-10.5651
ブーム	-10.5655
▁他の	-10.5656
ディン	-10.5657
航海	-10.566
発電所	-10.5661
▁13	-10.5662
本作の	-10.567
主題	-10.5676
人工	-10.5677
らの	-10.5681
退任	-10.5683
、1995	-10.5683
埋め	-10.5683
偏	-10.5684
空母	-10.5686
時間帯	-10.5687
ショップ	-10.5687
wi	-10.5687
バート	-10.5687
の違い	-10.569
とは異なり	-10.5691
ill	-10.5691
▁&	-10.5692
午後	-10.5693
殺人	-10.5696
船団	-10.5696
つまり	-10.5701
▁1972	-10.5703
ゴルフ	-10.5703
を失った	-10.5704
こく	-10.5706
ーゼ	-10.5707
大名	-10.571
に含まれる	-10.5713
べく	-10.5715
これまで	-10.5716
朱	-10.5718
ファースト	-10.5719
がこの	-10.5723
官僚	-10.5723
統	-10.5724
腸	-10.5725
ep	-10.5726
史料	-10.5731
空襲	-10.5736
剛	-10.5736
弦	-10.5738
、1960	-10.5739
▁西	-10.5741
ルイス	-10.5741
に出場	-10.5743
we	-10.5744
イタリアの	-10.5744
フォーク	-10.5745
南東	-10.5746
反映	-10.5746
に所属していた	-10.5747
実装	-10.5748
郵便局	-10.5752
ソニー	-10.5753
らい	-10.5756
位で	-10.5756
感情	-10.5756
上記	-10.5758
研	-10.5759
離れた	-10.5759
鹿児島	-10.576
▁ちなみに	-10.5761
部は	-10.5765
高級	-10.5765
こうした	-10.5768
伴	-10.577
がその	-10.577
ティア	-10.5773
、1996	-10.5773
した場合	-10.5776
の高い	-10.5778
キュー	-10.5779
たる	-10.5779
ターミナル	-10.5785
甲板	-10.5785
政府の	-10.5788
pp	-10.5788
達成	-10.5794
1985	-10.5795
紫	-10.5796
▁紀元前	-10.5798
八幡	-10.5801
収容	-10.5807
なくなる	-10.5807
近年	-10.5809
財産	-10.5809
リニューアル	-10.5809
銭	-10.5811
暮らし	-10.5814
は第	-10.5814
なくなり	-10.5814
にわたり	-10.5818
本編	-10.5824
リアン	-10.5824
の影響で	-10.5824
即位	-10.5826
ナス	-10.5827
出資	-10.5827
係	-10.5828
高松	-10.5828
人形	-10.5829
張り	-10.5831
容	-10.5831
軍を	-10.5832
下で	-10.5832
幹	-10.5834
を認め	-10.5835
の手	-10.5836
ッター	-10.5836
整理	-10.5837
が高く	-10.5838
金沢	-10.5838
年ぶりに	-10.5839
孔	-10.584
広い	-10.5841
携帯電話	-10.5841
亡命	-10.5841
01	-10.5842
請求	-10.5842
エンド	-10.5843
▁中国	-10.5847
捕	-10.5848
月刊	-10.5851
厳しい	-10.5856
面積は	-10.5859
に戻った	-10.5859
に従って	-10.5859
させること	-10.5861
がん	-10.5862
伝統的な	-10.5863
mb	-10.5863
篇	-10.5863
彼らは	-10.5865
敷	-10.5867
ドライブ	-10.5867
創刊	-10.587
を除いて	-10.5871
鑑	-10.5873
山地	-10.5878
ot	-10.5879
同士	-10.5883
▁彼らは	-10.5884
の死	-10.5884
攻略	-10.5886
大賞	-10.5888
時代から	-10.589
、1994	-10.589
ではあるが	-10.5893
キャンプ	-10.5894
寮	-10.5895
活動を	-10.5895
を感じ	-10.5897
に戻り	-10.5899
長年	-10.5902
1986	-10.5903
時点	-10.5906
休止	-10.5907
巨	-10.5908
歳以上	-10.5908
相談	-10.5914
北方	-10.5915
ンド	-10.5917
の乱	-10.5918
を構成する	-10.5921
天文	-10.5922
pr	-10.5922
フラン	-10.5926
てん	-10.5928
回数	-10.5929
一旦	-10.5931
の上に	-10.5932
希	-10.5933
魚雷	-10.5935
怪我	-10.5936
コメント	-10.5938
ゆき	-10.5939
ずに	-10.594
を示した	-10.5941
使用されている	-10.5942
じゅう	-10.595
圧力	-10.5951
やや	-10.5952
アド	-10.5952
その後も	-10.5956
rt	-10.5956
ミッション	-10.5958
滅	-10.5961
錦	-10.5962
ソビエト連邦	-10.5963
乗客	-10.5963
パッケージ	-10.5964
、1992	-10.5964
奉	-10.5967
過去の	-10.5971
したものである	-10.5971
社会的	-10.5974
ウェスト	-10.5978
困難	-10.5978
の意	-10.5978
を取る	-10.5978
道具	-10.598
えた	-10.598
晋	-10.5982
ju	-10.5982
に至った	-10.5982
素材	-10.5984
の姿	-10.5989
に比べて	-10.599
攻め	-10.599
旅団	-10.5991
攻	-10.5992
ッティ	-10.5996
正規	-10.5999
詰め	-10.6002
ポル	-10.6002
ダブル	-10.6008
連れ	-10.601
はなかった	-10.6014
各国	-10.6016
山城	-10.6016
ペア	-10.6017
目に	-10.602
泊	-10.6022
以前に	-10.6022
年代には	-10.6026
獄	-10.6026
騎兵	-10.6026
とある	-10.603
来る	-10.6031
されてきた	-10.6033
gu	-10.6035
は当初	-10.6036
冒険	-10.6036
継ぎ	-10.6036
塗装	-10.6038
専門学校	-10.6041
ノース	-10.6042
受験	-10.6042
直後	-10.6043
シリーズの	-10.6045
[	-10.6046
1945	-10.6046
以外	-10.6047
毎週	-10.6047
ty	-10.6048
吾	-10.6048
半分	-10.6049
ベラ	-10.6053
オフィス	-10.6055
ウィル	-10.6056
公式戦	-10.6056
種の	-10.6057
されたもの	-10.6057
部族	-10.6058
敗戦	-10.6058
発表した	-10.6061
▁こうして	-10.6064
そこから	-10.6064
誤	-10.6065
up	-10.6066
に戻る	-10.6067
の他に	-10.6069
面で	-10.6071
の楽曲	-10.6071
粉	-10.6072
シェル	-10.6075
シンガポール	-10.6076
歳の	-10.6077
広島県	-10.608
ボタン	-10.6081
-10	-10.6081
シナリオ	-10.6083
パソコン	-10.6085
作品である	-10.6086
校舎	-10.6086
解消	-10.609
競争	-10.6092
出馬	-10.6094
沖縄県	-10.6097
電鉄	-10.6098
を元に	-10.6099
はこれ	-10.61
就	-10.6101
小さく	-10.6103
を迎えた	-10.6104
出来る	-10.6105
河内	-10.6105
体育	-10.6105
終了後	-10.6105
古くから	-10.6105
したのは	-10.6111
1950	-10.6111
チームが	-10.6117
なので	-10.6119
に入団	-10.612
暫定	-10.6122
自主	-10.6123
傘下	-10.6123
若手	-10.6126
射撃	-10.6127
教室	-10.6128
創作	-10.613
はすべて	-10.613
ag	-10.6131
▁1973	-10.6132
っと	-10.6139
デザイナー	-10.6141
委託	-10.6142
されるようになった	-10.6143
すら	-10.6143
アプリケーション	-10.6147
の女性	-10.6148
出走	-10.6149
俗	-10.615
直線	-10.6151
スティ	-10.6152
入社	-10.6152
漁	-10.6153
爆弾	-10.6154
▁1978	-10.6154
の記録	-10.6154
わない	-10.6155
効	-10.6162
農民	-10.6163
ドーム	-10.6166
一つの	-10.6173
がいた	-10.6174
▁1975	-10.6176
などから	-10.6176
天体	-10.6177
初回	-10.6177
田村	-10.6178
を担当	-10.6179
ボストン	-10.6179
合流	-10.6181
年までに	-10.6184
あき	-10.6188
方向に	-10.6188
読者	-10.6189
乾	-10.6192
rd	-10.6196
tri	-10.6196
執	-10.6198
新田	-10.6199
もあって	-10.6199
押し	-10.6202
を与えた	-10.6203
葬	-10.6203
などと	-10.6205
テープ	-10.6206
大学教授	-10.6208
しょ	-10.6208
降伏	-10.6208
、1993	-10.6217
に選出された	-10.6217
繁	-10.6221
削減	-10.6223
子会社	-10.623
本拠地	-10.623
によっては	-10.6232
早稲田大学	-10.6233
リエ	-10.6234
ムス	-10.6235
ボート	-10.6235
ment	-10.6236
欠	-10.6236
に沿って	-10.6237
プール	-10.6239
後方	-10.624
リウス	-10.6241
買	-10.6241
回戦で	-10.6243
日記	-10.6244
化する	-10.6245
グレイ	-10.6246
ドラム	-10.6246
補給	-10.6252
出版社	-10.6253
鉱山	-10.6253
の一環として	-10.6254
公表	-10.6261
敷地	-10.6262
セー	-10.6262
乃	-10.6263
の死後	-10.6263
分に	-10.6263
奉行	-10.6267
賞受賞	-10.6267
されず	-10.6269
ボード	-10.6276
ハイム	-10.6278
人口は	-10.6278
夜間	-10.628
ケット	-10.6283
が特徴	-10.6284
確率	-10.6285
が多数	-10.6287
大会で	-10.6287
子ども	-10.6293
ラリー	-10.6294
複合	-10.6295
違う	-10.6295
日に発売された	-10.6297
▁それは	-10.6297
に存在する	-10.6298
モア	-10.6304
71	-10.6307
早く	-10.6307
cy	-10.6308
cl	-10.6311
避難	-10.6313
っていない	-10.6314
▁19	-10.6317
ブログ	-10.6319
岡田	-10.6322
顕	-10.6322
聖書	-10.6323
周年	-10.6323
家に	-10.6324
譲渡	-10.6326
中将	-10.6326
徒	-10.6329
tro	-10.6329
▁20	-10.6331
船舶	-10.6331
選挙区	-10.6331
に対しては	-10.6332
▁mo	-10.6332
上演	-10.6332
貢献	-10.6333
白い	-10.6333
に加入	-10.6337
暴力	-10.6338
、1991	-10.6341
▁主な	-10.6342
を果たし	-10.6348
二重	-10.6351
地図	-10.6351
bu	-10.6353
太田	-10.6355
自殺	-10.6355
が出	-10.6356
亡くなった	-10.6357
紋	-10.6358
、1989	-10.6363
おそらく	-10.6364
者として	-10.6364
木村	-10.6367
呂	-10.6367
の製造	-10.6369
連覇	-10.6369
同社の	-10.6371
甘	-10.6372
以外に	-10.6376
することとなった	-10.6378
連携	-10.6379
要塞	-10.6382
sd	-10.6385
が登場する	-10.6388
宮殿	-10.6389
タワー	-10.6389
都道府県	-10.639
ライバル	-10.6391
松平	-10.6394
モーター	-10.6396
前作	-10.6396
司馬	-10.6399
ィ	-10.6401
ハード	-10.6403
洗	-10.6404
chi	-10.6406
テレビ番組	-10.6406
率は	-10.6407
ドラフト	-10.6409
近鉄	-10.6409
のみが	-10.641
飼育	-10.6411
1984	-10.6412
ごと	-10.6413
根拠	-10.6415
るために	-10.6417
所在地	-10.642
ロイド	-10.642
炭	-10.6424
キル	-10.6424
初演	-10.6425
▁イギリス	-10.6426
ナチス	-10.6426
フライ	-10.6427
ツール	-10.6428
の妻	-10.6429
ミュージカル	-10.643
ものとして	-10.6432
標	-10.6432
象	-10.6433
フェン	-10.6435
ねん	-10.6438
線と	-10.6439
寧	-10.6442
起源	-10.6443
プロセス	-10.6443
課長	-10.6443
ハム	-10.6446
もなく	-10.6451
癌	-10.6453
追放	-10.6453
途中で	-10.6453
▁享年	-10.6456
逃れ	-10.6456
市町村	-10.6457
94	-10.6457
ゲート	-10.6464
下の	-10.6464
害	-10.6465
が多かった	-10.6466
好きな	-10.6467
例外	-10.6467
繁殖	-10.6469
かつての	-10.6469
続け	-10.647
で知られる	-10.6471
みな	-10.6472
にあたり	-10.6474
の位置	-10.6477
ut	-10.6477
放映	-10.6479
群馬県	-10.6479
を含め	-10.6479
わず	-10.6483
不可能	-10.6484
周波数	-10.6484
トリー	-10.6485
ストーン	-10.6487
▁1971	-10.6487
降り	-10.6498
発電	-10.6498
縮小	-10.6498
ミュ	-10.6498
という意味	-10.6499
地方の	-10.6501
フリードリヒ	-10.6502
評論家	-10.6502
エドワード	-10.6506
に指定されている	-10.6507
会館	-10.6507
チェン	-10.6508
オーケストラ	-10.6508
妃	-10.6509
勲	-10.651
ようと	-10.6512
の対象	-10.6513
者である	-10.6514
似	-10.6514
▁1976	-10.6515
出発	-10.6515
宅	-10.6519
逆転	-10.6521
サウス	-10.6522
飾	-10.6523
オープニング	-10.6526
目的で	-10.6527
ビス	-10.6527
突然	-10.6531
奏者	-10.6532
しさ	-10.6533
目の	-10.6534
ヒーロー	-10.6537
は日本	-10.6541
申	-10.6542
食事	-10.6546
1,000	-10.6548
限り	-10.6548
若干	-10.6551
鹿児島県	-10.6551
黄色	-10.6552
ゴールデン	-10.6554
短縮	-10.6555
戦前	-10.6556
の前に	-10.6556
に貢献した	-10.6557
したものの	-10.6557
碑	-10.656
微	-10.6562
処	-10.6562
宮城県	-10.6564
掛	-10.6567
ソル	-10.657
音源	-10.6571
を行うこと	-10.6574
部分は	-10.6575
ダービー	-10.6575
急速に	-10.6576
化し	-10.6578
配給	-10.6579
大規模	-10.658
の指導	-10.658
差し	-10.6581
ノス	-10.6581
インドネシア	-10.6582
プレス	-10.6585
昔	-10.6585
世界の	-10.6587
ニュージーランド	-10.659
支店	-10.6592
近くの	-10.6594
トレーニング	-10.6595
欧米	-10.6595
即	-10.6597
メモリ	-10.6598
モリ	-10.6598
装飾	-10.6603
硬	-10.6603
アレ	-10.6607
ペイ	-10.6608
眠	-10.6608
航路	-10.6609
中野	-10.661
応援	-10.6611
自身も	-10.6613
英雄	-10.6615
に所属する	-10.6616
1.5	-10.6619
強力な	-10.6619
ガード	-10.6619
歳の時に	-10.662
夫婦	-10.662
になっており	-10.6623
版の	-10.6625
ロイヤル	-10.6628
しゅ	-10.6629
ンス	-10.6634
若者	-10.6634
乗車	-10.6643
信頼	-10.6649
初出場	-10.6651
募集	-10.6651
勤	-10.6657
数々の	-10.6659
酵素	-10.6664
この時	-10.6665
▁ha	-10.6665
回収	-10.6665
エフ	-10.6667
段階で	-10.6667
助手	-10.6668
発見された	-10.6668
収集	-10.667
タイヤ	-10.667
ns	-10.667
拳	-10.6674
わけではない	-10.6676
インター	-10.6676
教皇	-10.6679
スル	-10.6681
たもの	-10.6686
を出す	-10.6694
を示し	-10.6694
懐	-10.6694
の高さ	-10.6695
してしまった	-10.6695
『"	-10.6699
ユニ	-10.6701
最低	-10.6704
亭	-10.6706
賞金	-10.6706
ここ	-10.6706
に生まれた	-10.6708
ゼル	-10.6708
構築	-10.6709
▁前	-10.6709
",	-10.6709
▁1969	-10.6711
回路	-10.6712
することは	-10.6713
▁sa	-10.6715
がそれぞれ	-10.6725
事が	-10.6737
92	-10.6738
グラン	-10.6739
社名	-10.6739
?」	-10.674
▁つまり	-10.674
▁1974	-10.6741
自身は	-10.6741
▁al	-10.6742
の大きさ	-10.6743
かもしれない	-10.6746
ことによって	-10.6746
*	-10.6747
放出	-10.6748
art	-10.6749
ビール	-10.6751
テス	-10.6752
疑問	-10.6755
一本	-10.6758
戦力	-10.676
日にかけて	-10.6761
電波	-10.6761
大橋	-10.6761
ウォ	-10.6762
、2020	-10.6763
恋愛	-10.6766
警	-10.677
国籍	-10.677
指揮者	-10.6771
、1987	-10.6773
者たち	-10.6774
繋	-10.6774
徳川	-10.6776
を担当する	-10.6776
もり	-10.6777
赤い	-10.6778
原理	-10.6781
イス	-10.6782
庁舎	-10.6784
述	-10.6786
語り	-10.6786
を利用する	-10.6787
、1988	-10.6788
被害者	-10.6789
バスケットボール	-10.679
▁その結果	-10.679
非難	-10.6793
琉球	-10.6799
なっている	-10.6801
昼	-10.6801
献	-10.6802
美しい	-10.6806
ホン	-10.6807
バレーボール	-10.6807
宮崎	-10.681
威	-10.681
トランス	-10.681
が始まり	-10.6816
フェア	-10.6819
に分類される	-10.682
促進	-10.6821
dd	-10.6821
コムーネ	-10.6821
ant	-10.6825
行列	-10.6825
せた	-10.6825
▁前作	-10.6826
左衛門	-10.6827
によるもの	-10.6827
人たち	-10.6831
ミング	-10.6832
を迎え	-10.6835
褐色	-10.6836
佳	-10.6837
1972	-10.6839
疑	-10.6842
ターン	-10.6845
趣味	-10.6846
権を	-10.6847
軍に	-10.6849
▁このように	-10.685
私は	-10.6852
を提供する	-10.6853
中には	-10.6854
の発展	-10.6855
▁1968	-10.6855
製造された	-10.6856
ようやく	-10.6858
ster	-10.6859
楊	-10.686
解体	-10.6861
sl	-10.6863
誰	-10.6863
以外にも	-10.6868
どこ	-10.6869
駆け	-10.6872
見る	-10.6873
将来	-10.6873
▁以下の	-10.6874
ベリー	-10.6874
性を	-10.6875
黒人	-10.6881
免	-10.6883
選手として	-10.6883
▁父	-10.6883
ていて	-10.6884
関心	-10.6884
ft	-10.6886
は通常	-10.6889
ひとり	-10.6889
ff	-10.689
上記の	-10.6891
レンズ	-10.6892
に伴って	-10.6895
pu	-10.6895
マガジン	-10.6896
哲	-10.6896
認可	-10.6897
るように	-10.6899
趙	-10.69
サンタ	-10.6902
等で	-10.6903
正面	-10.6908
駆動	-10.6908
徹	-10.691
cr	-10.6911
栄養	-10.6916
にとっては	-10.6918
だから	-10.6918
婚	-10.6918
パーソナリティ	-10.692
数値	-10.6921
ノール	-10.6922
酸素	-10.6923
突き	-10.6923
がい	-10.6924
を求め	-10.6925
位となった	-10.6925
監	-10.6926
クリス	-10.6926
協議会	-10.6927
呼	-10.6928
財団	-10.6928
sta	-10.693
に入って	-10.6931
同期	-10.6932
連合軍	-10.6932
著名な	-10.6932
影響力	-10.6932
ティック	-10.6934
やす	-10.6937
色の	-10.6937
頂	-10.6938
ヨン	-10.6939
上げた	-10.6945
登場する	-10.6948
インターナショナル	-10.6952
込	-10.6952
▁1977	-10.6952
量産	-10.6954
縮	-10.6955
行事	-10.6956
con	-10.6957
業績	-10.6958
蒸気	-10.6961
停留所	-10.6962
ヒトラー	-10.6963
の生産	-10.6963
相続	-10.6965
衝撃	-10.6966
良く	-10.6969
モス	-10.6971
za	-10.6971
グループの	-10.6974
変わり	-10.6975
騎手	-10.6976
が決定	-10.6978
ku	-10.6981
きっかけ	-10.6983
号は	-10.6983
上がる	-10.6984
班	-10.6984
異常	-10.6986
天保	-10.6988
流域	-10.6988
研修	-10.6989
ヴェー	-10.6993
に移り	-10.6993
菓子	-10.6994
だという	-10.6996
情報を	-10.6996
ふく	-10.6996
綿	-10.6999
最終的には	-10.6999
人員	-10.6999
に住む	-10.7002
アプリ	-10.7002
磨	-10.7004
したい	-10.7008
▁父は	-10.7009
dna	-10.701
結成された	-10.701
の設計	-10.7012
送り	-10.7012
年シーズン	-10.7014
mg	-10.7014
濃度	-10.7014
混合	-10.7016
この地域	-10.7018
吸	-10.702
ud	-10.7021
入手	-10.7023
尺	-10.7023
ストン	-10.7025
ber	-10.7025
バード	-10.7026
乾燥	-10.7026
明らか	-10.7029
容量	-10.703
α	-10.703
作目	-10.7031
機が	-10.7031
ツェ	-10.7035
あなた	-10.7036
ファミリー	-10.7037
創造	-10.7039
育	-10.704
動員	-10.7041
と言って	-10.7044
とは異なる	-10.7044
当日	-10.7045
診断	-10.7046
クイズ	-10.7049
nba	-10.705
シオ	-10.7051
壇	-10.7051
市内の	-10.7053
何か	-10.7053
予測	-10.7053
恒	-10.7055
態度	-10.7058
なもの	-10.7058
1983	-10.7062
柏	-10.7063
ウム	-10.7063
富山	-10.7064
ーノ	-10.7066
を開始し	-10.7069
用いられ	-10.7071
を占める	-10.7071
マイクロ	-10.7071
岡山県	-10.7075
日本国内	-10.7075
始まった	-10.7076
在籍	-10.7079
の変化	-10.7079
互いに	-10.7079
やはり	-10.7081
国連	-10.7084
合格	-10.7085
東方	-10.7093
死者	-10.7093
療法	-10.7094
宇都宮	-10.7095
書いた	-10.7096
、1985	-10.7097
ルド	-10.7099
準優勝	-10.71
駐	-10.7106
勤め	-10.7106
期に	-10.7106
減少	-10.7107
らなかった	-10.7107
アッ	-10.7109
vs	-10.711
周年記念	-10.7111
コフ	-10.7111
df	-10.7111
かみ	-10.7112
専攻	-10.7112
ってきた	-10.7116
チェコ	-10.7119
武田	-10.712
ひと	-10.712
提携	-10.712
君主	-10.7124
ロシアの	-10.7126
郭	-10.7127
をとる	-10.7127
決勝で	-10.7128
直径	-10.7134
機関車	-10.7137
▁o	-10.7138
迷	-10.7138
ig	-10.7141
5,000	-10.7142
町にある	-10.7144
で行われる	-10.7145
ナポレオン	-10.7145
本来の	-10.7148
天皇の	-10.715
語で	-10.715
プラス	-10.7151
突	-10.7152
1982	-10.7153
コンテンツ	-10.7154
編纂	-10.7156
ドイツ軍	-10.7156
完全な	-10.7157
備	-10.7157
沿い	-10.7158
工作	-10.7159
my	-10.7161
上り	-10.7161
天然	-10.7161
を利用した	-10.7164
ラテン語	-10.7168
輔	-10.7168
ger	-10.7168
ロフ	-10.7176
ネン	-10.7177
運賃	-10.718
始	-10.7181
最近	-10.7182
古墳	-10.7182
に際して	-10.7183
報告書	-10.7183
するか	-10.7183
吸収	-10.7183
mlb	-10.7184
モール	-10.7188
▁本作は	-10.7188
は以下の	-10.7189
を見た	-10.7191
月末	-10.7197
コム	-10.7197
朗	-10.7198
涼	-10.7198
に成功した	-10.7198
以前は	-10.7201
むしろ	-10.7202
shi	-10.7212
芽	-10.7213
以外は	-10.7217
決議	-10.7217
宮廷	-10.7218
下に	-10.7218
しょうがっこう	-10.7227
午前	-10.7227
頻繁に	-10.7227
チー	-10.7229
所属の	-10.723
損害	-10.723
変動	-10.7231
飛行機	-10.7231
羊	-10.7231
1969	-10.7233
動力	-10.7235
自体は	-10.7235
、1986	-10.724
に所属	-10.7242
広域	-10.7248
トラブル	-10.7249
予	-10.7249
中華民国	-10.7254
名義で	-10.7257
中断	-10.7259
スリー	-10.7259
ものに	-10.7261
熊本県	-10.7263
と対戦	-10.7264
会話	-10.7266
訴え	-10.7268
バンク	-10.7268
廃車	-10.7272
1975	-10.7275
トーマス	-10.7276
少数	-10.7276
衆議院議員	-10.7281
テイ	-10.7282
youtube	-10.7282
ができる	-10.7282
最後	-10.7285
ネオ	-10.7285
上部	-10.7285
者を	-10.7287
まい	-10.7288
エンディング	-10.729
キロメートル	-10.729
へ向かう	-10.7298
殺し	-10.7299
保守	-10.73
庭園	-10.7301
領主	-10.7302
▁1944	-10.7304
プロモーション	-10.7306
独特の	-10.7309
ペット	-10.7316
開拓	-10.7317
故	-10.7318
中島	-10.7319
を加えた	-10.732
▁=	-10.7322
▁pro	-10.7325
在位	-10.7325
戦場	-10.7326
緒	-10.7329
学名	-10.7329
物を	-10.7331
ポンド	-10.7331
使われた	-10.7333
附属	-10.7333
フレーム	-10.7337
▁北海道	-10.7337
駐車場	-10.7338
を含めた	-10.7342
歴史的	-10.7343
順に	-10.7343
署名	-10.7344
ことである	-10.7346
意味で	-10.7347
メタル	-10.7348
と呼ばれていた	-10.7349
が発生した	-10.7349
に参戦	-10.735
りょう	-10.7351
▁すなわち	-10.7352
白人	-10.7352
専用の	-10.7353
プレート	-10.7353
ob	-10.7357
用意	-10.736
映	-10.7361
▁三	-10.7362
吹き	-10.7364
マラソン	-10.7366
論争	-10.7366
スパ	-10.7367
クレジット	-10.7368
対決	-10.7369
気象	-10.7369
が発売された	-10.737
ガール	-10.7372
▁翌年	-10.7373
ショート	-10.7373
の原因	-10.7378
煙	-10.7379
巨大	-10.7379
ためである	-10.7382
結び	-10.7382
イェ	-10.7385
▁したがって	-10.739
替	-10.7392
将棋	-10.7394
稀	-10.7396
ぶん	-10.7398
ライター	-10.7402
保管	-10.7404
法案	-10.7406
魏	-10.7407
戦士	-10.7409
弟の	-10.7409
開催された	-10.741
東宝	-10.741
ローン	-10.7412
既存の	-10.7412
物資	-10.7414
上級	-10.7415
巻き	-10.7415
学問	-10.7418
nt	-10.7418
ワイド	-10.7419
ッサ	-10.7419
走り	-10.7421
高原	-10.7422
プレーオフ	-10.7426
だん	-10.7427
▁多くの	-10.7429
競	-10.7429
撃	-10.743
ze	-10.7431
地区の	-10.7431
循環	-10.7433
才能	-10.7433
lan	-10.7439
売却	-10.7441
衰退	-10.7443
od	-10.7444
クレイ	-10.7445
爆	-10.7446
岐阜	-10.7448
はまだ	-10.7448
設	-10.7449
年ぶりの	-10.7451
高速道路	-10.7451
サンフランシスコ	-10.7451
ヴァイ	-10.7452
アール	-10.7453
水道	-10.7455
キャンペーン	-10.7455
国内で	-10.7455
同時期に	-10.7456
方が	-10.7456
北陸	-10.7456
みや	-10.7456
夫妻	-10.746
恒星	-10.7462
93	-10.7463
を達成した	-10.7465
種目	-10.7466
タッグ	-10.7466
用いられた	-10.7467
小惑星	-10.7469
たこと	-10.7472
を挙げた	-10.7477
に対応	-10.748
―	-10.7482
登場した	-10.7483
のみである	-10.7483
不安	-10.7483
えい	-10.7484
バレー	-10.7486
ゾン	-10.7488
1979	-10.7488
鎖	-10.7488
通貨	-10.749
使用され	-10.749
ng	-10.7491
作中	-10.7492
侵入	-10.7495
の問題	-10.7496
を続け	-10.75
朝の	-10.75
ドロ	-10.7501
▁やがて	-10.7502
囲	-10.7503
はそれぞれ	-10.7504
出現	-10.7505
提唱	-10.7506
ルン	-10.7512
に用いられる	-10.7515
長野	-10.7516
在住	-10.7519
開放	-10.7521
リク	-10.7521
マイク	-10.7522
南海	-10.7526
ーション	-10.7529
番線	-10.7533
艦長	-10.7533
戦術	-10.7534
げん	-10.7534
かり	-10.7539
次々と	-10.7546
文化財	-10.7546
側が	-10.7548
アレンジ	-10.7548
実践	-10.7549
と考え	-10.7553
は無い	-10.7556
呼称	-10.7557
するように	-10.7558
大衆	-10.7559
コマ	-10.7559
享	-10.7561
旭	-10.7561
干	-10.7563
並	-10.7564
、1984	-10.7566
ポップ	-10.7567
▁1967	-10.7568
mer	-10.7569
体の	-10.7569
bc	-10.7574
努力	-10.7574
琴	-10.7579
周期	-10.7582
に属し	-10.7583
総裁	-10.7584
他に	-10.7585
を形成する	-10.7585
郵便	-10.7585
ーク	-10.7587
リーグの	-10.7587
一体	-10.7587
▁通常	-10.7589
土曜	-10.7593
ドラゴン	-10.7595
文章	-10.7596
専門家	-10.7599
署	-10.76
品種	-10.76
とり	-10.7601
しようとした	-10.7603
披露	-10.7604
の下に	-10.7605
以下のような	-10.7605
観音	-10.7606
コントロール	-10.7606
▁これらは	-10.7607
岩手県	-10.7608
状に	-10.7609
映画監督	-10.7609
tor	-10.7609
を務めている	-10.761
磯	-10.7611
ok	-10.7612
蓋	-10.7613
との間で	-10.7616
男爵	-10.7617
求	-10.7618
関与	-10.7621
年末	-10.7622
やすく	-10.7622
当主	-10.7623
進学	-10.7623
銘	-10.7623
クルー	-10.7624
フィリップ	-10.7626
蛇	-10.7628
同意	-10.7628
限界	-10.7631
さき	-10.7634
激しく	-10.7635
接近	-10.7635
dj	-10.7637
エク	-10.7642
前田	-10.7642
保持	-10.7644
前年	-10.7647
青森県	-10.7647
日付	-10.7648
積極的に	-10.7648
公立	-10.7649
だったため	-10.765
応募	-10.7651
フロ	-10.7652
でん	-10.7656
を決めた	-10.7658
▁これを	-10.7664
ファイナル	-10.7665
従業員	-10.7666
ないこと	-10.7672
うた	-10.7672
出席	-10.7674
ギア	-10.7676
1968	-10.7677
飛行場	-10.7678
▁更に	-10.7681
寄付	-10.7682
land	-10.7683
松山	-10.7683
もない	-10.7685
を達成	-10.7687
の時代	-10.7688
ウェブ	-10.769
兆	-10.769
受信	-10.769
武士	-10.7691
禅	-10.7694
増大	-10.7696
イラク	-10.7697
阪	-10.7697
願い	-10.7698
視聴者	-10.7698
いていた	-10.7699
本種	-10.7702
ラク	-10.7703
が中心	-10.7704
の販売	-10.7704
を起こす	-10.7704
ルーム	-10.7708
会計	-10.7708
限りで	-10.7708
年までは	-10.7711
開業した	-10.7712
してから	-10.7713
を記録し	-10.7713
モンスター	-10.7719
ヒロイン	-10.7719
犯人	-10.7721
南方	-10.7722
発掘	-10.7723
東京大学	-10.7723
拠	-10.7724
キス	-10.7727
hd	-10.7727
▁日本の	-10.773
付近に	-10.7734
ことが出来る	-10.7734
移植	-10.7734
派生	-10.7735
▁ro	-10.7737
恐れ	-10.7737
ナショナル	-10.7737
リル	-10.7737
トス	-10.7739
留学	-10.7739
アルコール	-10.774
ギャ	-10.7742
考え方	-10.7744
詳細	-10.7744
えん	-10.7745
を見る	-10.7746
といい	-10.7748
マール	-10.7751
ニュ	-10.7751
che	-10.7755
と言い	-10.7756
移住	-10.7757
aaa	-10.7759
磁	-10.7761
江戸時代	-10.7767
晩	-10.7767
制覇	-10.7768
ae	-10.7773
レート	-10.7774
淳	-10.7776
▁彼女は	-10.7777
は現在	-10.778
社が	-10.7782
1973	-10.7782
複雑な	-10.7782
▁1964	-10.7784
拝	-10.7786
ることとなった	-10.7786
修復	-10.7786
クライ	-10.7787
唱	-10.7787
週刊	-10.7791
込まれ	-10.7793
染	-10.7794
卓	-10.7795
▁1940	-10.7797
場所に	-10.7797
が強く	-10.7798
フィート	-10.7798
隣接する	-10.7799
といえる	-10.7799
ion	-10.7801
から約	-10.7803
という名称	-10.7805
きん	-10.7807
定数	-10.7807
mar	-10.7809
そのうち	-10.7809
それまでの	-10.7809
car	-10.781
依存	-10.7811
1981	-10.7811
前方	-10.7814
ようとした	-10.7815
認められ	-10.7819
築	-10.7821
十二	-10.7824
狂	-10.7826
公国	-10.7828
オスマン帝国	-10.7835
codice	-10.7837
は再び	-10.7842
1971	-10.7842
懸念	-10.7844
われた	-10.7845
助教授	-10.7847
駅で	-10.7847
ブルース	-10.7848
経済学	-10.7849
に達した	-10.7855
人数	-10.7858
ズは	-10.7858
勲章	-10.7861
としていた	-10.7861
襲	-10.7867
の音楽	-10.7867
▁mi	-10.7868
場合に	-10.7871
平方マイル	-10.7874
なかったが	-10.7875
を中心とする	-10.7876
mac	-10.7877
化石	-10.7878
描かれた	-10.7879
車の	-10.788
大西洋	-10.788
に入ると	-10.7881
に行く	-10.7881
感覚	-10.7882
建立	-10.7883
アカ	-10.7883
主宰	-10.7886
著作権	-10.7886
違反	-10.7887
近くに	-10.789
ておらず	-10.789
國	-10.789
▁on	-10.7891
ウェブサイト	-10.7892
日本テレビ	-10.7897
澄	-10.7898
1974	-10.7901
送信	-10.7903
共有	-10.7905
名古屋市	-10.7906
嵐	-10.7906
ヴェン	-10.7908
和田	-10.7911
有力	-10.7912
活躍した	-10.7912
ナウ	-10.7914
タンク	-10.7914
経由	-10.7916
でデビュー	-10.7916
品質	-10.7916
であるという	-10.7918
ンは	-10.792
勝負	-10.7922
を掲げ	-10.7923
質問	-10.7923
化合物	-10.7925
の弟	-10.7926
▁pa	-10.7928
悪魔	-10.7928
タイプの	-10.7929
dc	-10.7929
に渡り	-10.7931
北側	-10.7932
ストロ	-10.7936
溶	-10.7936
大坂	-10.7936
ズム	-10.7936
翌日	-10.7937
ワーク	-10.7938
と異なり	-10.7942
を受賞	-10.7942
を機に	-10.7943
配布	-10.7943
1978	-10.7943
民国	-10.7944
車線	-10.7946
量は	-10.7947
を続けた	-10.7947
先の	-10.7948
混	-10.7949
正式な	-10.7951
を獲得し	-10.7951
を残した	-10.7952
啓	-10.7953
ディス	-10.7957
中隊	-10.7958
研究会	-10.7959
裂	-10.7959
シング	-10.796
採用された	-10.7962
編入	-10.7963
ボクシング	-10.7965
認知	-10.7967
プス	-10.7967
黒い	-10.7974
軟	-10.7979
サイン	-10.798
阪急	-10.798
ラスト	-10.7981
エール	-10.7983
託	-10.7984
の末	-10.7984
スコア	-10.7985
ny	-10.7987
何度も	-10.7992
外観	-10.7993
完了	-10.7995
と結婚	-10.7996
を採用した	-10.7996
竣工	-10.7997
新設	-10.7997
ジャクソン	-10.7998
らせ	-10.7999
製作された	-10.8
任意の	-10.8003
朝日	-10.8004
的で	-10.8008
めて	-10.8008
基本的な	-10.801
発着	-10.8011
立地	-10.8012
出版された	-10.8012
登場人物	-10.8014
アブ	-10.8014
ガラ	-10.8015
針	-10.8016
上がった	-10.8022
コピー	-10.8023
メタ	-10.8025
訓	-10.8026
山梨県	-10.8029
猿	-10.803
警察署	-10.8032
任命	-10.8032
りゅう	-10.8033
成人	-10.8033
イギリス軍	-10.8035
司教	-10.8037
▁たとえば	-10.8037
才	-10.804
第四	-10.8041
後継者	-10.8041
if	-10.8042
ようになっている	-10.8042
トイレ	-10.8042
合戦	-10.8043
ではなかった	-10.8044
続ける	-10.8046
セルビア	-10.8047
刺激	-10.8048
かない	-10.8054
生まれた	-10.8057
いなかった	-10.806
オプション	-10.8062
チェーン	-10.8063
ray	-10.8065
終戦	-10.8068
附	-10.8069
死んだ	-10.807
山頂	-10.8071
詳細は	-10.8072
県の	-10.8073
全面	-10.8077
ニス	-10.8077
優勝した	-10.8081
▁se	-10.8082
停車	-10.8083
した際に	-10.8083
救助	-10.8084
経済的	-10.8084
不正	-10.8086
参加者	-10.8086
液体	-10.8088
フェスティバル	-10.8089
怒り	-10.8089
祝	-10.809
91	-10.8093
内側	-10.8094
新型	-10.8094
た後	-10.8095
出演者	-10.8097
▁1966	-10.8098
売り上げ	-10.8099
コンテスト	-10.8099
一緒に	-10.81
定理	-10.8101
代理	-10.8104
名誉教授	-10.8104
鋼	-10.8105
噂	-10.8107
-20	-10.811
コメディ	-10.811
栃木県	-10.8113
番目に	-10.8115
前身	-10.8115
を図る	-10.8118
手掛け	-10.8119
プロイセン	-10.8119
取った	-10.812
務め	-10.812
の舞台	-10.8124
作った	-10.8124
想定	-10.8131
シャル	-10.8131
エリザベス	-10.8133
年目	-10.8134
くなる	-10.8137
架	-10.8138
に参加する	-10.814
day	-10.8141
外側	-10.8142
たら	-10.8143
代表的な	-10.8143
売上	-10.8144
all	-10.8145
ct	-10.8147
、1982	-10.8148
電源	-10.8149
1976	-10.815
闘争	-10.8151
ゴル	-10.8152
小野	-10.8152
けんどう	-10.8154
切り替え	-10.8154
名で	-10.8154
横須賀	-10.8156
平安時代	-10.8157
変身	-10.8159
芸能	-10.8159
天正	-10.816
貝	-10.8166
やり	-10.8169
位に	-10.8169
調べ	-10.8169
が発生する	-10.8172
提示	-10.8173
崇	-10.8173
ボーナス	-10.8174
長距離	-10.8176
の両方	-10.8176
彼を	-10.8176
が存在し	-10.8178
、1983	-10.818
終点	-10.818
ステップ	-10.8181
を発売	-10.8182
設立された	-10.8182
トヨタ	-10.8184
結果として	-10.8184
の導入	-10.8186
日本に	-10.8186
モチーフ	-10.8187
共和党	-10.8189
多摩	-10.819
ばら	-10.8192
どちら	-10.8194
ルス	-10.8194
ロマン	-10.8194
一切	-10.8194
いき	-10.8196
グラフ	-10.82
マグ	-10.82
担	-10.8201
ラップ	-10.8202
出撃	-10.8206
にくい	-10.8207
ドゥー	-10.8208
地域で	-10.8208
るという	-10.821
する場合	-10.8211
バラエティ番組	-10.8212
発生する	-10.8212
の首都	-10.8212
が設置された	-10.8213
ルーマニア	-10.8223
延期	-10.8223
bl	-10.8223
▁japan	-10.8223
後任	-10.8225
当初の	-10.8225
、1950	-10.8227
大人	-10.8232
会社の	-10.8234
エロ	-10.8234
毎	-10.8236
大韓民国	-10.8236
▁1941	-10.8238
hp	-10.8239
童	-10.824
刊行された	-10.824
カンパニー	-10.8241
▁no	-10.8245
の立場	-10.8248
スコット	-10.8249
協議	-10.8253
何らかの	-10.8253
▁1965	-10.8255
交易	-10.8256
屈	-10.8257
消	-10.8259
続いて	-10.8265
であることを	-10.8265
が無い	-10.8265
05	-10.8267
たちに	-10.8268
アニ	-10.8268
保証	-10.8269
告げ	-10.827
いった	-10.827
淵	-10.8274
パック	-10.8275
探	-10.8276
那	-10.8277
くん	-10.8277
終盤	-10.8277
運河	-10.8277
叔父	-10.8283
経過	-10.8284
pro	-10.8285
丘陵	-10.8286
ていたため	-10.8286
互	-10.8288
家督	-10.8288
を記録	-10.8288
衛生	-10.8289
修了	-10.829
滞在	-10.8291
忍	-10.8292
米軍	-10.8292
四郎	-10.8293
国防	-10.8295
漫画家	-10.8296
授与	-10.8297
騒動	-10.8298
ダウンロード	-10.8298
に必要な	-10.8299
初登場	-10.83
キューバ	-10.8301
実力	-10.8302
宝塚	-10.8302
その後の	-10.8304
に大きな	-10.8308
ときは	-10.8308
処刑	-10.831
闇	-10.8312
改装	-10.8314
講談社	-10.8315
先頭	-10.8323
隊長	-10.8324
タクシー	-10.8325
世紀後半	-10.8326
したことで	-10.8326
魅力	-10.8327
▁do	-10.8328
と言った	-10.8328
が設置され	-10.8329
と述べ	-10.833
の最初の	-10.8335
配備	-10.8336
しなければならない	-10.8337
族の	-10.8337
ロケ	-10.8338
pi	-10.8339
バウ	-10.834
ることで	-10.8342
密度	-10.8345
を率いて	-10.8345
を受けている	-10.8349
人種	-10.8349
曲が	-10.8349
点で	-10.835
選定	-10.8352
使う	-10.8352
uss	-10.8353
▁フランス	-10.8353
ビーチ	-10.8356
コマンド	-10.8356
拓	-10.8358
操	-10.8358
くら	-10.8359
校長	-10.8359
上流	-10.836
ノル	-10.8361
を求めた	-10.8363
と結婚した	-10.8364
朝廷	-10.8364
原子力	-10.8365
rpg	-10.8365
絶滅	-10.8366
瑞	-10.8367
1%	-10.8367
冒頭	-10.8368
漁業	-10.8368
に挑戦	-10.8368
キャスター	-10.837
得意	-10.8371
わけ	-10.8372
入場	-10.8373
車内	-10.8374
活性化	-10.8374
へ移籍	-10.8375
知られ	-10.8382
室内	-10.8383
pri	-10.8383
dy	-10.8383
チベット	-10.8384
事項	-10.8384
高田	-10.8385
最中	-10.8385
年度の	-10.8387
建国	-10.8389
放送開始	-10.8389
ll	-10.839
tr	-10.839
公爵	-10.8392
修行	-10.8395
ランプ	-10.8395
理想	-10.8396
の利用	-10.8397
もいる	-10.8398
途	-10.8399
世紀末	-10.8401
タス	-10.8402
ことや	-10.8403
版では	-10.8404
皇后	-10.8404
衣装	-10.8405
を扱う	-10.8405
論理	-10.8407
特殊な	-10.8408
に達し	-10.8408
ヒュー	-10.8409
を起こし	-10.8409
救援	-10.841
墓地	-10.8411
mf	-10.8413
詰	-10.8416
ゾーン	-10.8419
通勤	-10.8419
に渡って	-10.8422
日々	-10.8425
警戒	-10.8425
ron	-10.8428
時台	-10.843
を歴任	-10.843
フロー	-10.843
大量の	-10.8434
共演	-10.8434
tko	-10.8435
ミラー	-10.8435
乗り入れ	-10.8436
に見られる	-10.844
ダイヤ	-10.844
ッパー	-10.8445
下流	-10.8445
に関わる	-10.8446
まえ	-10.8446
発展した	-10.8447
ぼう	-10.8447
世紀初頭	-10.8448
庵	-10.845
▁ho	-10.845
建築家	-10.845
の概念	-10.8451
本格的な	-10.8452
ent	-10.8453
幅広い	-10.8454
づけ	-10.8455
士官	-10.8457
▁南	-10.8457
先生	-10.846
観光客	-10.846
ノイ	-10.8463
バランス	-10.8463
都合	-10.8463
各地	-10.8463
泥	-10.8464
所蔵	-10.8467
あん	-10.8468
からである	-10.8468
敷設	-10.8469
たく	-10.8474
電池	-10.8475
水路	-10.8476
ジャーナリスト	-10.848
くり	-10.8481
入口	-10.8481
直前に	-10.8481
は他の	-10.8482
em	-10.8484
えない	-10.8484
タール	-10.8484
グー	-10.8485
オーナー	-10.8485
部下	-10.8487
恋人	-10.8487
著者	-10.8489
ホールディングス	-10.849
空中	-10.8492
手を	-10.8492
この曲	-10.8494
▁1943	-10.8496
存	-10.8498
蘇	-10.8499
触	-10.85
捨て	-10.8502
前から	-10.8502
が大きい	-10.8503
達は	-10.8507
ところで	-10.8507
たま	-10.8507
創設された	-10.8509
か所	-10.8509
村上	-10.8515
回衆議院議員総選挙	-10.8518
に追い	-10.8521
明治時代	-10.8524
水上	-10.8527
人権	-10.8527
わら	-10.8527
ようである	-10.8527
エクス	-10.8527
選ばれた	-10.8528
数十	-10.8529
で生まれた	-10.8534
を採用し	-10.8535
鍵	-10.8536
機動	-10.8536
両国	-10.8536
ツィ	-10.8537
はこれを	-10.8537
起点	-10.8539
ak	-10.8541
130	-10.8541
ジョンソン	-10.8542
線を	-10.8543
を理由に	-10.8544
を得	-10.8546
hu	-10.8548
リャ	-10.8549
歌唱	-10.8553
と一緒に	-10.8554
市川	-10.8554
管轄	-10.8554
3%	-10.8555
二次	-10.8555
fo	-10.8555
山口県	-10.8557
lp	-10.8557
super	-10.8558
act	-10.856
高山	-10.8561
を使い	-10.8563
du	-10.8565
の森	-10.8566
出演した	-10.857
可能である	-10.8571
着陸	-10.8571
第一次世界大戦	-10.8573
姿を	-10.8573
中でも	-10.8577
近郊	-10.8577
長らく	-10.8579
積み	-10.858
が少ない	-10.8581
踊り	-10.8582
クリスマス	-10.8583
国外	-10.8584
締結	-10.8585
nk	-10.8585
潜	-10.8587
見た	-10.8588
知られている	-10.8589
を受賞した	-10.8591
さか	-10.8591
シアター	-10.8592
ともいう	-10.8592
選手権大会	-10.8596
トロン	-10.8597
▁同じ	-10.8598
払い	-10.86
司令	-10.8601
ちゅう	-10.8602
参入	-10.8602
続き	-10.8604
答え	-10.8605
月にかけて	-10.8605
我々	-10.8606
ブルガリア	-10.8607
余り	-10.861
検出	-10.861
部隊は	-10.8611
が強い	-10.8611
付けられた	-10.8611
▁最初の	-10.8614
辛	-10.8615
ユナイテッド	-10.8616
に所在する	-10.8617
▁1942	-10.8618
を持たない	-10.8618
ようとする	-10.8618
各地で	-10.8619
緑色	-10.862
要請	-10.862
終了した	-10.8621
又	-10.8624
に及ぶ	-10.8626
注目	-10.8626
残る	-10.8626
出た	-10.8627
バイオ	-10.8627
▁他に	-10.8629
シュー	-10.8629
続編	-10.8629
本格的に	-10.863
日曜	-10.863
おき	-10.8633
耐	-10.8634
ぜん	-10.8636
に次いで	-10.8636
秋田県	-10.8643
グラム	-10.8644
高校生	-10.8644
を主	-10.8645
個別	-10.8645
2.5	-10.8645
と改称	-10.8646
珍しい	-10.8646
ミリ	-10.8647
奈良県	-10.8648
mu	-10.8649
快速	-10.8653
準決勝	-10.8653
チャレンジ	-10.8655
▁昭和	-10.8655
視聴率	-10.8656
として活動	-10.8657
隊員	-10.8658
第一次	-10.866
ガリ	-10.8663
代表作	-10.8664
倒れ	-10.8666
鳳	-10.8666
しかった	-10.8667
-15	-10.8668
続いた	-10.867
ence	-10.8671
容易に	-10.8672
"』	-10.8672
愛称	-10.8672
▁以下は	-10.8675
統制	-10.8676
淡	-10.8679
秘書	-10.868
を学び	-10.8682
アメリカ海軍	-10.8682
と主張した	-10.8685
下記の	-10.8685
▁1963	-10.8687
列車が	-10.8687
手に	-10.8687
を出し	-10.8688
、1972	-10.8692
前面	-10.8692
年代以降	-10.8695
アラン	-10.8697
は全	-10.8697
▁当	-10.8699
ヤマ	-10.8699
特集	-10.87
パネル	-10.87
の増加	-10.8702
函館	-10.8703
カフェ	-10.8703
山形	-10.8703
斗	-10.8708
end	-10.8709
1964	-10.871
るもの	-10.8712
騎士	-10.8713
を挙げる	-10.8715
小倉	-10.8717
シュタイン	-10.8718
が初めて	-10.8718
昆虫	-10.8718
にわたる	-10.8719
年連続	-10.872
分散	-10.872
ヨハン	-10.8722
改めて	-10.8722
と契約	-10.8723
ミュンヘン	-10.8726
退職	-10.8727
砲撃	-10.8727
マネージャー	-10.8729
せずに	-10.8729
_2	-10.8732
爆撃	-10.8734
枚の	-10.8735
の流れ	-10.8736
1890	-10.8737
ユーロ	-10.8738
冬季	-10.874
ないように	-10.8741
1977	-10.8741
を設立し	-10.8744
cu	-10.8744
▁0	-10.8745
ee	-10.8746
演説	-10.8747
の多い	-10.8748
文芸	-10.8748
曲線	-10.8749
婦	-10.8751
実業家	-10.8757
テク	-10.8759
養子	-10.876
必ず	-10.8761
利用できる	-10.8761
ちゃ	-10.8765
する必要がある	-10.8766
技術者	-10.8767
、1979	-10.8769
コンクール	-10.8769
寛永	-10.877
鉱	-10.877
モハ	-10.877
るべき	-10.8771
に再	-10.8771
削除	-10.8771
▁東京都出身	-10.8774
述べている	-10.8775
の基礎	-10.8778
制作された	-10.8779
をあげ	-10.8782
甥	-10.8782
堺	-10.8787
▁以下	-10.879
ギン	-10.8792
1904	-10.8792
大分	-10.8792
を学ぶ	-10.8793
虚	-10.8793
昇進	-10.8793
身分	-10.8794
旧制	-10.8796
1967	-10.8796
クロアチア	-10.8797
のもとで	-10.8798
セミ	-10.8798
階段	-10.8799
2%	-10.8801
脚本家	-10.8802
単語	-10.8803
▁1930	-10.8804
sm	-10.8806
化され	-10.8807
城主	-10.8807
例として	-10.8808
方程式	-10.8808
さま	-10.8809
イスラム	-10.8809
▁world	-10.881
鐘	-10.8812
les	-10.8814
探偵	-10.8815
船体	-10.8818
配列	-10.8818
遺産	-10.8819
、1981	-10.8819
独占	-10.8821
遊び	-10.8822
キア	-10.8823
をして	-10.8823
▁ドイツ	-10.8825
が挙げられる	-10.8825
tic	-10.8826
アナログ	-10.8827
主任	-10.8828
2,000	-10.8828
模型	-10.883
他にも	-10.8832
はあまり	-10.8833
野村	-10.8834
つつある	-10.8836
塁	-10.8837
キック	-10.8837
公開された	-10.8838
管区	-10.8838
炉	-10.8839
はほぼ	-10.8844
両方	-10.8846
籠	-10.8846
五輪	-10.8846
の運行	-10.8847
にちなんで	-10.8847
回避	-10.8848
に代わって	-10.8848
を多く	-10.885
フリ	-10.8855
、1975	-10.8855
▁マ	-10.8856
かす	-10.8858
変わった	-10.8858
水準	-10.886
無く	-10.8861
をもとに	-10.8861
することになる	-10.8863
1924	-10.8864
の長さ	-10.8869
地中海	-10.8871
町村	-10.8872
風景	-10.8872
の調査	-10.8872
終結	-10.8874
借	-10.8875
変形	-10.8876
釣り	-10.888
陥落	-10.8882
ハウ	-10.8883
洪水	-10.8885
▁以降	-10.8889
▁di	-10.889
】	-10.8891
優秀	-10.8891
この作品	-10.8891
脈	-10.8895
▁同時に	-10.8896
くらい	-10.8897
将校	-10.8897
辰	-10.8899
元禄	-10.89
込め	-10.8901
▁le	-10.8902
の子孫	-10.8903
チョウ	-10.8904
などでは	-10.8905
フィル	-10.8907
左翼	-10.8909
gs	-10.891
になること	-10.891
▁この頃	-10.891
▁エ	-10.8913
の自由	-10.8913
戦国時代	-10.8914
後部	-10.8914
取る	-10.8915
明け	-10.8918
起こった	-10.8918
辻	-10.8919
▁so	-10.892
推	-10.892
を破り	-10.892
別名	-10.892
通常は	-10.8921
要望	-10.8921
介入	-10.8923
車種	-10.8923
胡	-10.8923
引用	-10.8924
実在	-10.8926
ルズ	-10.8927
であることから	-10.8929
タッチ	-10.8929
発足した	-10.8932
の内容	-10.8934
口径	-10.8934
子供たち	-10.8936
ana	-10.8937
」・「	-10.8937
車は	-10.8938
この地	-10.8938
れん	-10.8939
市に	-10.894
引退した	-10.894
届	-10.8942
はず	-10.8944
の声	-10.8944
力が	-10.8948
渡し	-10.8949
回大会	-10.8955
中国語	-10.8956
条例	-10.8961
繊維	-10.8963
進歩	-10.8963
tokyo	-10.8965
バッ	-10.8966
王位	-10.8966
第二次	-10.8968
岡崎	-10.8968
08	-10.8969
比例	-10.897
ice	-10.897
晩年	-10.8971
ったり	-10.8973
しかも	-10.8973
マックス	-10.8973
ラジ	-10.8974
親王	-10.8974
抗争	-10.8974
ケーブル	-10.8975
在学中	-10.8976
スプ	-10.8976
に師事	-10.8977
ary	-10.8979
の成績	-10.898
融	-10.8981
征	-10.8983
世界遺産	-10.8986
証券	-10.8987
創建	-10.8989
狭	-10.8989
建設された	-10.899
物理学	-10.899
いん	-10.8992
生放送	-10.8992
細菌	-10.8992
-17	-10.8993
財務	-10.8995
壊	-10.8997
ース	-10.8998
繰り	-10.8998
簡易	-10.8999
儀式	-10.9
とはいえ	-10.9
▁番組	-10.9002
直後の	-10.9003
僅か	-10.9003
yo	-10.9003
1940	-10.9005
併合	-10.9006
後退	-10.9011
ハーン	-10.9011
の活躍	-10.9013
box	-10.9014
▁–	-10.9014
する形で	-10.9015
閣	-10.9018
装着	-10.9022
▁li	-10.9025
使用されていた	-10.9025
討ち	-10.9026
削	-10.9026
有機	-10.9027
その後は	-10.9027
勅	-10.9029
ついた	-10.9031
間もなく	-10.9032
膝	-10.9036
プラットフォーム	-10.9036
フェリー	-10.9038
雰囲気	-10.9039
val	-10.9041
夏の	-10.9041
を訪れ	-10.9041
金曜	-10.9042
差別	-10.9046
残っている	-10.9047
北西部	-10.9048
武蔵	-10.9049
ラジオ番組	-10.905
講	-10.905
ニール	-10.9051
▁このほか	-10.9051
訴	-10.9053
aa	-10.9053
風の	-10.9056
を卒業	-10.9056
は同じ	-10.9056
電気鉄道	-10.9057
早い	-10.9058
側から	-10.906
緩和	-10.906
を迎える	-10.9061
サッカー選手	-10.9062
</	-10.9064
しようとする	-10.9065
徳島	-10.9066
辞職	-10.9066
責任者	-10.9067
筒	-10.9067
聞	-10.9067
梨	-10.9067
に貢献	-10.9069
中核	-10.907
先輩	-10.9072
勉強	-10.9072
十分な	-10.9075
を表明	-10.9076
じゃ	-10.9076
規模の	-10.908
ファイ	-10.908
技法	-10.9082
登場している	-10.9082
用いられている	-10.9084
、1978	-10.9084
濃	-10.9085
シップ	-10.9086
比率	-10.9086
現行	-10.9086
福井	-10.9087
嗣	-10.9087
ヴァイオリン	-10.9092
平面	-10.9094
測	-10.9095
▁ex	-10.9096
亮	-10.9096
全員が	-10.9096
と言われ	-10.9097
の地名	-10.9099
の主要	-10.9101
に対応する	-10.9103
ジオ	-10.9104
▁you	-10.9106
年間の	-10.9106
含まれ	-10.9106
不満	-10.9107
hy	-10.9109
県内	-10.9111
特別な	-10.9114
ある程度	-10.9114
圧縮	-10.9116
playstation	-10.9118
まもなく	-10.9118
現れ	-10.9119
原料	-10.9119
複雑	-10.9119
周り	-10.912
結晶	-10.912
薬物	-10.9122
改札	-10.9122
後には	-10.9129
複	-10.9129
決め	-10.9133
que	-10.9133
滅亡	-10.9133
元々	-10.9135
に続く	-10.9136
であって	-10.914
命中	-10.9141
人事	-10.9141
ほとんどが	-10.9142
イースト	-10.9143
既	-10.9144
、1976	-10.9145
嫌	-10.9146
強さ	-10.9148
残った	-10.9149
1903	-10.9149
発売されている	-10.915
競走馬	-10.9154
長崎県	-10.9155
サークル	-10.9155
上田	-10.9157
に勤務	-10.9157
金曜日	-10.9158
得られる	-10.916
役者	-10.9162
東急	-10.9162
ならびに	-10.9166
りん	-10.9166
1923	-10.9167
コウ	-10.9167
ls	-10.9167
考	-10.9167
合わせて	-10.9167
don	-10.9167
シネマ	-10.9168
ist	-10.917
滋賀県	-10.917
菅	-10.917
1925	-10.917
候補者	-10.9172
検索	-10.9173
克	-10.9175
ならない	-10.9175
に存在した	-10.9176
おく	-10.9177
振動	-10.9178
内には	-10.9179
権威	-10.9179
生息	-10.9182
返し	-10.9183
埋	-10.9183
は同	-10.9183
長女	-10.9185
、1973	-10.9185
場所で	-10.9187
▁live	-10.9187
gm	-10.9188
すこと	-10.9188
気持ち	-10.9188
霧	-10.9189
▁ca	-10.919
港湾	-10.9192
下部	-10.9192
町内	-10.9193
を学んだ	-10.9194
に到着した	-10.9196
沿線	-10.9196
ヴィルヘルム	-10.9198
物理	-10.9199
戦死	-10.9201
900	-10.9201
大野	-10.9202
▁1961	-10.9202
に達する	-10.9203
金を	-10.9204
にする	-10.9205
山崎	-10.9206
の称号	-10.9208
日常	-10.9208
松竹	-10.921
藩の	-10.921
大気	-10.9211
進む	-10.9211
ないため	-10.9213
団地	-10.9213
リトアニア	-10.9213
年以降は	-10.9214
低迷	-10.9216
中退	-10.9218
を通る	-10.9218
顧客	-10.9219
的である	-10.922
と同様の	-10.922
した際	-10.9223
消滅した	-10.9226
多様な	-10.9228
▁music	-10.923
組み合わせ	-10.9233
一時的に	-10.9234
▁結局	-10.9237
▁1962	-10.9239
肺	-10.924
ショック	-10.9242
止	-10.9243
に設置された	-10.9243
序	-10.9243
|	-10.9243
いま	-10.9244
110	-10.9245
ハラ	-10.9248
oc	-10.9252
チリ	-10.9256
日目	-10.9257
伏	-10.9258
かつては	-10.9258
▁本作	-10.9259
ウォーター	-10.926
皮膚	-10.9261
国内の	-10.9264
1927	-10.9267
橋本	-10.9271
金額	-10.9272
石炭	-10.9272
退団	-10.9273
幕末	-10.9274
内戦	-10.9275
出して	-10.9275
リーは	-10.9276
別れ	-10.9276
悟	-10.9276
シャルル	-10.9277
大会では	-10.9278
跡地	-10.928
されているが	-10.928
マップ	-10.9281
1500	-10.9281
もっと	-10.9282
知られる	-10.9282
三河	-10.9284
同僚	-10.9284
珠	-10.9285
ピーク	-10.9287
人材	-10.9289
道を	-10.929
非常	-10.9293
を送り	-10.9293
▁まさ	-10.9294
直通	-10.9294
にいる	-10.9294
▁go	-10.9295
シェア	-10.9297
コロンビア	-10.9298
芸人	-10.9298
行われていた	-10.9299
1966	-10.9301
説得	-10.9301
ジョーンズ	-10.9302
▁本名は	-10.9302
クール	-10.9302
駆	-10.9302
を用い	-10.9303
ミュー	-10.9305
gen	-10.9307
騎	-10.9307
稿	-10.9307
客車	-10.9307
の境界	-10.9309
イエス	-10.931
1919	-10.9311
垣	-10.9312
さず	-10.9315
="2"|-||	-10.9315
性が	-10.9316
幻	-10.9317
に位置している	-10.9318
仕事を	-10.932
割り	-10.932
てしまい	-10.932
征服	-10.9324
残留	-10.9325
咲	-10.9327
ショウ	-10.933
全線	-10.9333
のではないか	-10.9336
変化する	-10.9337
映画化	-10.9341
味方	-10.9342
諏訪	-10.9346
代表取締役社長	-10.9346
行い	-10.9349
0.0	-10.9349
min	-10.935
ゴム	-10.9353
out	-10.9353
のちの	-10.9355
140	-10.9355
に移転	-10.9357
の強い	-10.9357
径	-10.9357
ヒー	-10.9358
俺	-10.9359
ヘリコプター	-10.9365
すけ	-10.9368
建造物	-10.9368
重複	-10.9368
ばん	-10.9369
最新	-10.9369
日中	-10.9371
番台	-10.9372
刑務所	-10.9372
馬場	-10.9374
の前身	-10.9374
に任命された	-10.9377
手続き	-10.9382
テレビ朝日	-10.9382
時期に	-10.9383
に向かった	-10.9384
恐怖	-10.9386
ことはない	-10.9386
を使用している	-10.9389
迎え	-10.9392
の整備	-10.9392
版は	-10.9393
見られ	-10.9394
と呼び	-10.9395
目撃	-10.9397
鞍	-10.9398
1930	-10.9399
運輸	-10.9401
夕方	-10.9404
出場した	-10.9405
当地	-10.9405
所持	-10.9405
湿	-10.9406
潤	-10.9406
作画	-10.9409
を含めて	-10.9416
肝	-10.9416
の一部を	-10.9417
セーブ	-10.9422
かれた	-10.9424
登山	-10.9429
百貨店	-10.9431
標本	-10.9432
欲	-10.9432
必要な	-10.9433
1965	-10.9433
の攻撃	-10.9435
レーン	-10.9435
現代の	-10.9435
海域	-10.9436
烏	-10.9436
▁1920	-10.9436
細川	-10.944
山形県	-10.9447
ないまま	-10.9448
を進め	-10.9448
ギリシア	-10.9449
出る	-10.9451
グラフィック	-10.9452
時間が	-10.9452
ニャ	-10.9452
任期	-10.9452
代藩主	-10.9453
スイッチ	-10.9453
匹	-10.9454
代表として	-10.9455
を作った	-10.9455
レッ	-10.9456
佐々木	-10.9457
実施された	-10.9457
を重ね	-10.9458
▁高	-10.946
加速	-10.946
建築物	-10.946
ディオ	-10.9461
ノフ	-10.9463
フト	-10.9464
専	-10.9465
刃	-10.9465
出演している	-10.9466
打ち上げ	-10.9467
相手の	-10.9469
いつ	-10.9472
トウ	-10.9472
の再	-10.9473
バルセロナ	-10.9474
航行	-10.9474
といわれている	-10.9475
返還	-10.9475
ドリーム	-10.9476
まったく	-10.9476
付近で	-10.9477
と言える	-10.9478
されたため	-10.9481
退役	-10.9481
コミックス	-10.9482
を広げ	-10.9482
セラ	-10.9482
心理	-10.9483
に成功	-10.9483
メリ	-10.9486
現存する	-10.9486
講座	-10.9487
スポット	-10.9489
海賊	-10.9493
融合	-10.9493
をきっかけに	-10.9494
マスク	-10.9495
リオン	-10.9495
カタ	-10.9496
延伸	-10.9496
尿	-10.9497
近衛	-10.9498
初戦	-10.95
堤	-10.95
幾	-10.9501
につき	-10.9504
原則として	-10.9506
順次	-10.9508
殻	-10.9509
都市計画	-10.951
ほん	-10.9511
人々が	-10.9513
島に	-10.9513
バット	-10.9516
が設けられ	-10.9517
放棄	-10.9518
していなかった	-10.9518
南部の	-10.9519
変数	-10.9519
一時期	-10.952
アメリカで	-10.952
岬	-10.952
牽引	-10.9521
信用	-10.9522
ランク	-10.9522
役員	-10.9522
水戸	-10.9523
棚	-10.9523
大学名誉教授	-10.9523
目を	-10.9524
スラ	-10.9524
彫刻	-10.9525
チア	-10.9525
▁このうち	-10.9525
民衆	-10.9526
に従い	-10.9526
1902	-10.9526
チャートで	-10.9527
タム	-10.9529
が必要である	-10.9529
線は	-10.9529
控え	-10.953
到達	-10.953
、1974	-10.9531
1944	-10.9531
版が	-10.9531
ノート	-10.9531
譜	-10.9531
を書き	-10.9532
篠	-10.9532
1922	-10.9534
正しい	-10.9534
グレー	-10.9538
▁1947	-10.9538
描かれている	-10.9538
▁専門は	-10.954
併	-10.954
出来ない	-10.9541
▁カ	-10.9542
1918	-10.9542
講義	-10.9543
招待	-10.9544
施工	-10.9544
and	-10.9548
が含まれる	-10.9548
大宮	-10.9548
が担当	-10.9548
はアメリカ	-10.955
テーブル	-10.9551
を開設	-10.9551
対処	-10.9552
示す	-10.9554
住居	-10.9556
出て	-10.9557
養成	-10.9558
の言葉	-10.956
肥	-10.956
主義者	-10.956
各地の	-10.9562
後者	-10.9565
伊豆	-10.9566
されるが	-10.9566
通路	-10.9568
齢	-10.9572
フィラデルフィア	-10.9572
、1977	-10.9573
ーラ	-10.9574
届け	-10.9575
は全く	-10.9575
で構成される	-10.9576
ten	-10.9576
に移籍した	-10.9576
裁	-10.9576
バレエ	-10.9577
候	-10.9578
mt	-10.9578
オイ	-10.9579
カントリー	-10.958
理由は	-10.958
を経由して	-10.9581
が生じ	-10.9585
灰	-10.9585
、1968	-10.9586
1926	-10.9588
の次男	-10.9589
吉野	-10.9589
巡洋艦	-10.959
往	-10.959
たという	-10.9592
つである	-10.9596
為に	-10.9597
移	-10.9597
駅まで	-10.96
事で	-10.9601
主役	-10.9602
呼ばれ	-10.9602
しかない	-10.9603
書店	-10.9604
富山県	-10.9604
アラブ	-10.9604
幼稚園	-10.9606
表紙	-10.9607
編集者	-10.9607
セブン	-10.9611
モンテ	-10.9612
ダブルス	-10.9613
を呼び	-10.9613
を繰り返し	-10.9614
イズ	-10.9615
小川	-10.9616
損	-10.9616
sk	-10.9617
で優勝	-10.9617
水平	-10.9617
学位	-10.962
所領	-10.9621
何も	-10.9624
当然	-10.9624
短編	-10.9626
チップ	-10.9629
▁アル	-10.9631
嶺	-10.9632
都市圏	-10.9632
を知る	-10.9634
帰り	-10.9634
つける	-10.9636
保健	-10.9638
満州	-10.9638
にも関わらず	-10.964
織田	-10.9642
は不明である	-10.9642
バイエルン	-10.9643
独自	-10.9643
電化	-10.9644
あげ	-10.9644
をベースに	-10.9644
該当	-10.9644
季節	-10.9646
慶長	-10.9647
wbc	-10.9648
紋章	-10.9648
三角	-10.9649
十分	-10.9649
扱う	-10.9649
中川	-10.965
法的	-10.965
が起こる	-10.9653
▁fifa	-10.9654
という名前	-10.9654
医薬品	-10.9655
氏が	-10.9655
ther	-10.9658
住宅地	-10.9658
炭素	-10.9659
離れ	-10.9659
翔	-10.9661
アマ	-10.9664
貧	-10.9664
▁1959	-10.9664
を行って	-10.9665
は大きく	-10.9666
査	-10.9667
大量	-10.9667
総会	-10.9668
マレーシア	-10.967
最古の	-10.967
プー	-10.9672
楼	-10.9673
結論	-10.9676
保安	-10.9677
を守る	-10.9678
小屋	-10.9678
と改名	-10.968
かし	-10.9681
マンション	-10.9682
傘下の	-10.9682
王国の	-10.9684
北区	-10.9684
駅は	-10.9685
開け	-10.9687
の支配	-10.9687
、1971	-10.9688
完	-10.9688
息子の	-10.9689
全般	-10.9692
とは別	-10.9692
徴	-10.9692
▁is	-10.9693
ここに	-10.9693
ベリ	-10.9694
興味	-10.9694
den	-10.9695
支払い	-10.9695
レビュー	-10.9696
傍ら	-10.9697
確	-10.9699
大きさ	-10.9701
鎮圧	-10.9703
コーヒー	-10.9703
みつ	-10.9705
参考	-10.9705
現れた	-10.9706
に比べ	-10.9706
省略	-10.9713
事件の	-10.9714
スカウト	-10.9717
ループ	-10.9717
ind	-10.9717
期間は	-10.9719
を取得	-10.9719
不能	-10.9719
行われている	-10.9719
商店街	-10.972
8%	-10.9721
併用	-10.9721
謙	-10.9722
捕手	-10.9722
ゼー	-10.9723
に敗れ	-10.9723
授	-10.9725
イスラーム	-10.9725
々と	-10.9725
年時点で	-10.9727
▁1958	-10.9729
正確な	-10.9729
残りの	-10.973
men	-10.973
殆ど	-10.9731
▁[	-10.9732
行っている	-10.9732
神宮	-10.9732
賛成	-10.9733
日をもって	-10.9735
に出場した	-10.9735
を大きく	-10.9735
サイクル	-10.9736
予約	-10.9736
ハリウッド	-10.9736
黄金	-10.9736
勃発	-10.9738
実用	-10.9738
とても	-10.9739
愛知	-10.9739
両者	-10.9739
発注	-10.974
がく	-10.9742
kw	-10.9745
生じる	-10.9745
リバー	-10.9745
にかけての	-10.975
res	-10.975
易	-10.9752
ビュ	-10.9753
に入学	-10.9754
劣	-10.9756
フジ	-10.9756
長編	-10.9756
だけの	-10.9758
そうした	-10.9759
付く	-10.976
om	-10.9761
har	-10.9762
ないと	-10.9762
しつつ	-10.9762
▁正	-10.9763
出来	-10.9763
感謝	-10.9763
を投げ	-10.9764
ことが多く	-10.9765
の間の	-10.9767
に所属し	-10.9768
大使館	-10.9768
随	-10.9773
han	-10.9773
以下のように	-10.9774
▁オ	-10.9776
消え	-10.9776
ムシ	-10.9778
の権利	-10.9778
が続いた	-10.9781
がほとんど	-10.9783
で放送されていた	-10.9783
北東部	-10.9786
▁jr	-10.9786
でもあり	-10.9793
コーン	-10.9793
he	-10.9795
ヴォル	-10.9796
歌舞伎	-10.9799
研究科	-10.98
合唱	-10.9804
摂	-10.9807
描いた	-10.9807
坪	-10.9807
哨戒	-10.9807
乗員	-10.9807
ブライアン	-10.9808
もこの	-10.981
電圧	-10.9812
重力	-10.9812
境界	-10.9812
方に	-10.9812
は不明	-10.9814
大変	-10.9815
ェ	-10.9815
戦う	-10.9816
期限	-10.9816
講演	-10.9816
▁いずれも	-10.9823
二丁目	-10.9823
鈴	-10.9826
ea	-10.9826
汚染	-10.9826
十字	-10.9827
ッパ	-10.9828
ストップ	-10.9829
助け	-10.983
内では	-10.9832
ぜ	-10.9833
シンボル	-10.9835
基本的に	-10.9837
がなかった	-10.9837
とは別に	-10.9837
トレード	-10.9837
1900	-10.9841
評判	-10.9842
垂	-10.9842
ner	-10.9842
1898	-10.9844
調理	-10.9847
キャプテン	-10.9847
大分県	-10.9848
を搭載した	-10.9851
キリスト	-10.9851
大島	-10.9852
木造	-10.9853
楽章	-10.9853
設立した	-10.9854
着用	-10.9854
いわ	-10.9855
ッセ	-10.9855
を求めて	-10.9855
衆議院	-10.9856
曲を	-10.9856
怪	-10.9858
乙	-10.9859
早期	-10.986
施	-10.986
が少なく	-10.9861
▁bo	-10.9861
の変更	-10.9862
7%	-10.9862
の設置	-10.9863
入院	-10.9864
▁love	-10.9864
存在し	-10.987
▁1946	-10.987
依	-10.9873
日放送	-10.9875
隠れ	-10.9877
リゾート	-10.9877
打者	-10.988
ファル	-10.988
青森	-10.9881
育て	-10.9882
の平均	-10.9883
重賞	-10.9884
大幅に	-10.9884
辞任	-10.9885
鶏	-10.9886
だけが	-10.9887
6%	-10.9888
飲み	-10.9888
ブリー	-10.9888
4%	-10.9889
07	-10.989
三島	-10.9892
1/	-10.9892
マドリード	-10.9898
モバイル	-10.9898
レア	-10.99
ブレイ	-10.99
添	-10.9904
置き	-10.9906
▁1939	-10.9907
取り組み	-10.9907
グラス	-10.9908
の都市	-10.9911
短期間	-10.9912
自由に	-10.9913
期生	-10.9916
妨害	-10.9916
▁第二次世界大戦	-10.9918
わか	-10.992
学長	-10.992
共同体	-10.992
復元	-10.9921
スロー	-10.9923
込まれた	-10.9923
障害者	-10.9923
の動き	-10.9923
大尉	-10.9923
mk	-10.9925
当初から	-10.9926
さくら	-10.9926
心理学	-10.9928
▁1948	-10.9929
ボーイ	-10.9929
カッ	-10.9929
-18	-10.9929
▁1955	-10.9931
月下旬	-10.9931
▁この間	-10.9935
景観	-10.9936
を開始する	-10.9937
数百	-10.9944
が生まれた	-10.9948
侵略	-10.9949
導入された	-10.9949
書記	-10.9949
に従事	-10.995
が可能である	-10.995
みち	-10.9951
はその後	-10.9951
新作	-10.9952
書かれている	-10.9955
が現れ	-10.9956
アウ	-10.9957
つけた	-10.9958
得る	-10.9958
判事	-10.996
1901	-10.9962
グラウンド	-10.9962
je	-10.9962
世に	-10.9962
不可	-10.9962
受け入れ	-10.9963
を決める	-10.9968
初となる	-10.9969
cal	-10.9969
看板	-10.9973
捜索	-10.9975
等を	-10.9976
ぽ	-10.9976
ペー	-10.9978
すぎ	-10.9978
を実施	-10.9979
を集め	-10.998
山岳	-10.9984
同士の	-10.9985
を備えた	-10.9987
は存在しない	-10.9987
石井	-10.9989
不振	-10.999
her	-10.9991
それ以外の	-10.9995
フランス軍	-10.9996
を発表し	-10.9998
1962	-11
並べ	-11.0001
選考	-11.0001
試合に出場し	-11.0003
固有	-11.0004
てくる	-11.0005
集会	-11.0007
ate	-11.0008
年頃に	-11.0008
live	-11.0011
番地	-11.0011
示唆	-11.0012
抑制	-11.0013
西方	-11.0013
瀬戸	-11.0014
フォール	-11.0015
三浦	-11.0017
もん	-11.0017
下記	-11.0018
めい	-11.0023
を立ち上げ	-11.0026
遺体	-11.0027
愛媛県	-11.0029
実は	-11.0029
、1969	-11.003
パーセント	-11.003
に昇格	-11.0031
なぜ	-11.0031
を起こした	-11.0032
鎌倉時代	-11.0032
の多くが	-11.0034
リム	-11.0035
が用いられる	-11.0036
ase	-11.0036
ntt	-11.0036
適切な	-11.0036
己	-11.0037
fl	-11.0039
ピンク	-11.0041
▁1956	-11.0042
気筒	-11.0044
に至るまで	-11.0044
ウェールズ	-11.0045
表彰	-11.0046
とりわけ	-11.0047
予防	-11.0048
トゥス	-11.0049
徒歩	-11.005
と発表した	-11.0051
cg	-11.0052
ものではない	-11.0053
壊滅	-11.0053
同国	-11.0057
を探し	-11.0057
含	-11.0059
ブロー	-11.006
は後に	-11.0065
名称は	-11.0066
、1964	-11.0067
メアリー	-11.0067
テレビ東京	-11.0067
政府が	-11.0068
▁東京都	-11.0068
単独で	-11.0068
斎藤	-11.0069
セントラル	-11.007
移管	-11.0071
逃	-11.0075
戦時	-11.008
サウルス	-11.0081
戒	-11.0082
ペリ	-11.0083
を使用して	-11.0084
妊娠	-11.0087
恭	-11.0088
するのは	-11.0093
1963	-11.0095
瓦	-11.0096
場で	-11.0098
を挙げ	-11.0101
abc	-11.0102
性的	-11.0104
伊達	-11.0108
09	-11.0108
水域	-11.011
way	-11.011
毎回	-11.0113
実況	-11.0115
ことができた	-11.0116
シード	-11.0117
記す	-11.012
造船所	-11.0123
爵位	-11.0123
無限	-11.0123
られない	-11.0124
立法	-11.0126
にあたって	-11.0126
検証	-11.0128
と考えた	-11.0128
甲子園	-11.013
落語	-11.0132
次のような	-11.0132
を置く	-11.0132
に本社を置く	-11.0133
消費者	-11.0134
のことを	-11.0136
偶然	-11.0136
審判	-11.0137
定着	-11.0137
などにより	-11.0138
和歌山県	-11.0139
に出場し	-11.014
ufc	-11.0141
同作	-11.0142
拘束	-11.0142
郡内	-11.0143
実家	-11.0145
はイギリス	-11.0146
猪	-11.0147
来た	-11.0147
扇	-11.0147
範	-11.0147
ブリッジ	-11.0148
音楽院	-11.0152
形成された	-11.0153
チェック	-11.0154
鋭	-11.0154
博多	-11.0156
奨励	-11.0157
土佐	-11.0159
が運営する	-11.016
過程で	-11.016
商標	-11.0161
耕	-11.0161
月からは	-11.0162
態	-11.0163
1921	-11.0168
fifa	-11.0168
所長	-11.017
山下	-11.017
さと	-11.0171
はいずれも	-11.0175
に改名	-11.0175
は当時	-11.0175
ひら	-11.0176
発売した	-11.0176
欄	-11.0176
認め	-11.0177
競合	-11.0177
信長	-11.0178
pv	-11.0178
豊田	-11.0179
レク	-11.0181
度々	-11.0181
イチ	-11.0181
▁本名	-11.0181
加賀	-11.0183
市と	-11.0183
初めての	-11.0186
塗	-11.0187
搭乗	-11.0188
死後	-11.0188
パーツ	-11.0188
以前から	-11.019
mr	-11.0192
牧場	-11.0193
椎	-11.0194
香川県	-11.0197
上げる	-11.0197
選手が	-11.0199
教会の	-11.0199
誕生した	-11.0199
として活躍	-11.0199
コミュニケーション	-11.02
とおり	-11.0202
改編	-11.0204
トニー	-11.0204
世界で	-11.0206
高架	-11.0207
後継	-11.0208
出生	-11.0208
子と	-11.0209
称号	-11.021
回答	-11.0212
▁ba	-11.0212
ina	-11.0213
を設立した	-11.0213
脅威	-11.0213
飾り	-11.0215
を失い	-11.0217
首位	-11.0218
日曜日	-11.0221
悪い	-11.0223
熟	-11.0224
に出演した	-11.0225
近世	-11.0225
カリフォルニア	-11.0225
交わ	-11.023
青山	-11.0233
隔	-11.0235
話し	-11.0238
狭い	-11.0239
▁na	-11.024
レーザー	-11.0245
していること	-11.0246
天使	-11.0246
メダル	-11.0246
爆撃機	-11.0247
使用された	-11.0247
付いて	-11.0249
同名の	-11.0249
エディ	-11.0252
マリオ	-11.0253
隣接	-11.0254
02	-11.0254
03	-11.0257
ction	-11.0258
ぐん	-11.0258
人口約	-11.026
死刑	-11.0261
を有し	-11.0261
瞬間	-11.0261
放射	-11.0261
尽く	-11.0262
大公	-11.0264
みず	-11.0264
クイーン	-11.0266
正義	-11.0267
引き継がれ	-11.0268
の際には	-11.027
で初	-11.027
出典	-11.0272
1897	-11.0274
の評価	-11.0275
時点では	-11.0276
が存在した	-11.0277
付けた	-11.0277
付ける	-11.0279
無い	-11.028
隠し	-11.028
たん	-11.0281
うちに	-11.0283
艦艇	-11.0284
ブロン	-11.0284
催	-11.0285
靴	-11.0287
反射	-11.0287
撮影所	-11.0289
を継続	-11.029
高校時代	-11.0291
教養	-11.0293
南西部	-11.0297
中心部	-11.0297
が非常に	-11.0297
ギル	-11.0297
用いられる	-11.0297
タリ	-11.0298
を見せた	-11.03
充実	-11.0301
テキスト	-11.0302
鴨	-11.0302
砲兵	-11.0303
▁1954	-11.0305
▁1949	-11.0306
怒	-11.0306
▁ここでは	-11.0306
教区	-11.0308
短く	-11.0308
king	-11.0316
烈	-11.0316
尾張	-11.0317
ニューヨーク州	-11.0318
抑え	-11.0318
に帰	-11.0318
ang	-11.0319
直前	-11.032
母音	-11.0322
涙	-11.0323
レーション	-11.0323
1896	-11.0324
国立公園	-11.0326
粘	-11.0327
人々は	-11.033
の向上	-11.0331
を設置し	-11.0332
の普及	-11.0333
科学者	-11.0334
切る	-11.0336
二郎	-11.0336
の政治家	-11.0336
スが	-11.0336
ウルトラ	-11.0337
種子	-11.034
イド	-11.0341
所有者	-11.0341
女神	-11.0342
red	-11.0343
1899	-11.0346
が収録されている	-11.0348
る事	-11.0348
広報	-11.0349
β	-11.0351
逃亡	-11.0353
を発見した	-11.0353
マツ	-11.0353
郡は	-11.0353
県にある	-11.0354
gar	-11.0354
わる	-11.0355
rom	-11.0355
決して	-11.0356
プリンス	-11.0356
南極	-11.0357
はさらに	-11.0358
ていること	-11.0363
できるように	-11.0365
正教会	-11.0367
出店	-11.037
ギタリスト	-11.037
佐賀	-11.0371
rc	-11.0373
▁現在では	-11.0373
方の	-11.0375
pt	-11.0376
ッキ	-11.0376
年代後半	-11.0377
万枚	-11.0378
04	-11.0378
マンは	-11.0381
ではないか	-11.0383
強度	-11.0383
ことも多い	-11.0387
アリス	-11.0387
少なく	-11.0387
▁まず	-11.0389
フットボール	-11.0394
ドクター	-11.0395
春日	-11.0397
ライヴ	-11.0398
▁mm	-11.0401
呼びかけ	-11.0401
日本における	-11.0402
、1967	-11.0404
作品が	-11.0406
増加した	-11.0409
一丁目	-11.0409
邪	-11.0412
形は	-11.0412
本国	-11.0413
老朽化	-11.0413
市街	-11.0414
ちゅうがっこう	-11.0416
合衆国	-11.0416
トマス	-11.0417
▁1952	-11.0422
はかつて	-11.0423
再開発	-11.0423
レーシング	-11.0427
牧師	-11.0427
クレー	-11.0427
野生	-11.0428
返す	-11.0428
同日	-11.0428
の人々	-11.0429
▁大阪	-11.043
れない	-11.043
あわせて	-11.0431
葛	-11.0432
果実	-11.0433
がなされた	-11.0434
大戦	-11.0437
法第	-11.0438
総務	-11.0439
cf	-11.044
稼働	-11.0443
が出た	-11.0443
は基本的に	-11.0444
ld	-11.0444
結果的に	-11.0444
ガイド	-11.0444
時刻	-11.0445
1946	-11.0446
二軍	-11.045
次いで	-11.045
の情報	-11.0457
line	-11.0457
ジア	-11.0459
階建て	-11.0459
本町	-11.046
満足	-11.0461
パーティー	-11.0462
を使用し	-11.0463
ッキー	-11.0463
周囲の	-11.0463
定められた	-11.0463
与えられる	-11.0463
▁天正	-11.0464
各社	-11.0467
投与	-11.0468
学年	-11.0468
概ね	-11.0471
子孫	-11.0471
かかった	-11.0475
▁1953	-11.0476
ica	-11.0477
南米	-11.0479
点は	-11.048
cp	-11.048
種牡馬	-11.0483
法令	-11.0484
進んで	-11.0485
、1965	-11.0485
待ち	-11.0486
駅と	-11.0486
1920	-11.0486
年連続で	-11.0488
貨幣	-11.0488
利用される	-11.0488
無人	-11.0489
ポケモン	-11.0492
概	-11.0493
を抱え	-11.0495
債務	-11.0496
する際に	-11.0497
1914	-11.05
つもり	-11.05
の運営	-11.0501
ファンタジー	-11.0502
sion	-11.0503
マスコミ	-11.0504
ぷ	-11.0504
主として	-11.0504
野菜	-11.0504
磁気	-11.0505
冷却	-11.0505
仕組み	-11.0506
エンジンは	-11.0506
作品で	-11.0506
主題歌	-11.0507
半ば	-11.0507
ません	-11.0509
地域に	-11.051
雌	-11.051
祀	-11.051
餌	-11.0511
の最終	-11.0514
▁ゲーム	-11.0516
劇場版	-11.0516
逸	-11.0516
るか	-11.0517
曾	-11.0518
そば	-11.0519
たけ	-11.0522
人以上	-11.0523
ロープ	-11.0523
スクリーン	-11.0525
棲	-11.0526
をかけて	-11.0527
職人	-11.0528
現状	-11.0529
ボルト	-11.0529
に立ち	-11.053
ラフ	-11.0531
の母	-11.0532
大いに	-11.0537
隅	-11.0537
終わった	-11.0537
携帯	-11.0538
蒲	-11.0538
1949	-11.0539
てる	-11.0539
付加	-11.054
土木	-11.054
しまう	-11.0542
損失	-11.0542
珍	-11.0542
ハーフ	-11.0543
付近の	-11.0546
併せて	-11.0549
登場し	-11.055
に敗れた	-11.0551
に登場した	-11.0553
東日本大震災	-11.0553
締め	-11.0555
垂直	-11.0556
調達	-11.0558
過ぎ	-11.0559
盗塁	-11.0561
だけではなく	-11.0564
賛	-11.0566
ヴォー	-11.0567
ダニエル	-11.0568
▁アメリカ合衆国	-11.0569
使われていた	-11.057
のイメージ	-11.0572
公社	-11.0572
祥	-11.0572
制約	-11.0572
疑い	-11.0572
ウィリアムズ	-11.0573
聞き	-11.0573
を流れる	-11.0574
白色	-11.0575
▁1957	-11.0576
とされていた	-11.0577
専属	-11.0579
的なもの	-11.0579
ナム	-11.0581
ide	-11.0582
と考える	-11.0582
ってくる	-11.0583
弱い	-11.0583
が描かれている	-11.0584
連合会	-11.0585
販売されている	-11.0586
篤	-11.0586
ふじ	-11.0587
利用されている	-11.0587
チャンピオンシップ	-11.0587
に続いて	-11.059
スパー	-11.0591
徳島県	-11.0592
1947	-11.0593
のアルバム	-11.0594
部分が	-11.0595
カーブ	-11.0596
横浜市	-11.0596
ミナ	-11.0596
違法	-11.0599
技師	-11.0601
平行	-11.0601
ハリ	-11.0603
ボブ	-11.0604
rna	-11.0604
を組み	-11.0605
透明	-11.0607
に進出	-11.0608
af	-11.0609
すべく	-11.061
ard	-11.061
要件	-11.061
並み	-11.0611
起訴	-11.0614
ヨーク	-11.0614
海戦	-11.0614
近隣	-11.0616
生物学	-11.0616
計画は	-11.0617
番人気	-11.062
後述の	-11.0621
芸術家	-11.0625
を兼ね	-11.0628
丈	-11.0629
支流	-11.0629
シングルス	-11.063
編集長	-11.063
自分たち	-11.0631
伝達	-11.0632
にあって	-11.0632
逮捕された	-11.0633
開局	-11.0634
識	-11.0636
偵察	-11.0638
ソビエト	-11.0638
したところ	-11.0638
サーバ	-11.0639
路線バス	-11.064
小説家	-11.0643
福井県	-11.0645
の開催	-11.0646
新設された	-11.0649
農村	-11.0649
大学大学院	-11.0652
を押し	-11.0652
家が	-11.0653
が増え	-11.0654
を訪れた	-11.0655
と表記	-11.0655
経営者	-11.0656
デビューした	-11.0656
摩	-11.0656
社は	-11.0656
サス	-11.0658
残された	-11.0659
死ぬ	-11.0663
最初	-11.0664
1943	-11.0664
坂本	-11.0664
シュート	-11.0666
城を	-11.0666
も見られる	-11.0666
契約を結んだ	-11.0669
引っ	-11.0669
でありながら	-11.0669
燕	-11.067
年ごろ	-11.0672
が始まる	-11.0677
抜	-11.0678
享保	-11.0682
住所	-11.0683
次男	-11.0683
かた	-11.0684
年ぶり	-11.0688
と称する	-11.0689
定員	-11.0689
1917	-11.0691
裸	-11.0691
砂漠	-11.0691
中学生	-11.0692
▁1937	-11.0692
革	-11.0693
スペイン語	-11.0693
活発	-11.0693
狼	-11.0696
ヴェネツィア	-11.0697
有限	-11.0699
ニコ	-11.0701
うまく	-11.0703
小松	-11.0705
設置された	-11.0707
天井	-11.0708
熊野	-11.0709
盆地	-11.0711
おい	-11.0712
田町	-11.0713
ガーデン	-11.0713
尉	-11.0714
煮	-11.0715
まさ	-11.0716
に登場	-11.0717
他社	-11.0718
前線	-11.0719
優勝を果たした	-11.0719
を表明した	-11.0721
国民党	-11.0721
を一	-11.0722
していたため	-11.0724
声明	-11.0725
及	-11.0726
野田	-11.0726
そのため	-11.073
が入る	-11.0731
1912	-11.0732
市役所	-11.0733
領地	-11.0735
すぎる	-11.0736
フォース	-11.0737
アメリカ人	-11.0737
かせ	-11.0737
失われ	-11.0737
綾	-11.0738
甲斐	-11.0739
永禄	-11.0741
こととなる	-11.0742
に転	-11.0742
バリー	-11.0743
大ヒット	-11.0744
使用した	-11.0745
不良	-11.0746
コント	-11.0747
1942	-11.0749
王立	-11.0749
虐殺	-11.075
仮面ライダー	-11.075
土壌	-11.0751
汁	-11.0751
呼吸	-11.0752
胤	-11.0753
ポリス	-11.0754
▁records	-11.0754
誘	-11.0756
られており	-11.0756
科の	-11.0758
ドイツ人	-11.0759
というもの	-11.076
女性の	-11.0761
買い	-11.0761
歳から	-11.0761
ibm	-11.0761
韓国の	-11.0762
人々の	-11.0764
の制作	-11.0765
ベクトル	-11.0766
照明	-11.0766
まって	-11.0767
ハンド	-11.077
記述する	-11.077
横断	-11.077
に転じ	-11.0771
慶応	-11.0771
北部の	-11.0772
体育館	-11.0772
売れ	-11.0773
怪獣	-11.0773
東芝	-11.0775
ran	-11.0776
改め	-11.0778
除去	-11.0778
県立	-11.078
索	-11.0782
槍	-11.0784
で第	-11.0784
に似た	-11.079
cor	-11.079
軌	-11.0792
具体的な	-11.0795
符	-11.0796
の設立	-11.0796
トリオ	-11.0796
浮上	-11.0797
見方	-11.0798
した上で	-11.0799
去	-11.0799
twitter	-11.0799
ョ	-11.0799
正確に	-11.0802
カナダの	-11.0803
ヨーロッパの	-11.0805
代行	-11.0807
近畿	-11.081
und	-11.081
175	-11.0811
南アフリカ	-11.0811
と語った	-11.0812
の範囲	-11.0812
会談	-11.0813
に就任し	-11.0814
兵力	-11.0815
みんな	-11.0816
時間は	-11.0816
阻止	-11.0817
考慮	-11.082
日本でも	-11.0821
機能を	-11.0821
視点	-11.0822
qui	-11.0823
1910	-11.0823
ベア	-11.0824
評議会	-11.0829
ロジャー	-11.0829
役で	-11.083
1941	-11.0831
学研究科	-11.0832
イト	-11.0833
完結	-11.0834
を基に	-11.0835
排除	-11.0835
臨床	-11.0835
ies	-11.0836
函数	-11.0836
それ以前	-11.0839
が出る	-11.084
ジング	-11.0841
済み	-11.0844
使用される	-11.0845
アシスタント	-11.0846
部分を	-11.0846
全部	-11.0846
道場	-11.0847
徹底	-11.0848
ウラ	-11.0848
キム	-11.085
有料	-11.0852
アシスト	-11.0853
作品に	-11.0854
ピエール	-11.0856
新しく	-11.0856
の支援	-11.0858
頂点	-11.0858
のデザイン	-11.0858
ぞう	-11.086
線の駅である	-11.0861
遷	-11.0861
駅である	-11.0863
プロテスタント	-11.0865
カ国	-11.0865
徐	-11.0866
宮城	-11.0866
、1945	-11.0867
させている	-11.0867
かけて	-11.0867
討伐	-11.0868
単一	-11.0868
神殿	-11.0871
部が	-11.0873
砲塔	-11.0874
が困難	-11.0874
事実上の	-11.0874
小学生	-11.0875
続けている	-11.0876
都心	-11.0876
コンテナ	-11.0877
上京	-11.0878
家老	-11.0878
死去した	-11.0879
謝罪	-11.088
三国	-11.0882
bgm	-11.0882
9%	-11.0883
をそれぞれ	-11.0885
その中で	-11.0886
ことと	-11.0887
でなく	-11.0889
最上	-11.089
日の対	-11.089
少佐	-11.0891
を考える	-11.0893
ライダー	-11.0895
試作	-11.0895
いつも	-11.0898
地で	-11.0898
機は	-11.0899
りする	-11.09
に迎え	-11.0901
の長男	-11.0902
繰り返し	-11.0903
を決め	-11.0905
瓶	-11.0905
スマートフォン	-11.0905
選挙で	-11.0907
モント	-11.0909
並ぶ	-11.0912
а	-11.0912
あくまで	-11.0913
救出	-11.0915
セス	-11.0917
適応	-11.0921
est	-11.0922
ビーム	-11.0924
取られ	-11.0924
舌	-11.0925
豊かな	-11.0926
ü	-11.0927
石川県	-11.0927
ei	-11.0928
みる	-11.0929
が起こり	-11.093
クーデター	-11.0932
のほかに	-11.0932
ラック	-11.0935
万石	-11.0937
トール	-11.0937
藤田	-11.0937
ゲージ	-11.0938
降板	-11.0941
に掲載された	-11.0941
懸	-11.0941
に進学	-11.0944
ah	-11.0947
新聞社	-11.0949
cpu	-11.095
ならず	-11.0951
テキサス	-11.0951
燃焼	-11.0952
世界観	-11.0952
に使われる	-11.0953
無効	-11.0956
用として	-11.0956
再放送	-11.0958
iso	-11.0958
も参照	-11.0959
零	-11.0959
鷲	-11.096
の記述	-11.0961
京都市	-11.0962
間を	-11.0964
今まで	-11.0964
桐	-11.0964
浦和	-11.0965
未満	-11.0965
ヴィア	-11.0965
職務	-11.0966
を建て	-11.0966
車両は	-11.0966
ルカ	-11.0967
枚目	-11.0967
が盛ん	-11.0967
ニカ	-11.0968
日米	-11.097
オリンピックの	-11.097
に引き	-11.0971
ボウ	-11.0972
様に	-11.0976
レオン	-11.0976
ダーク	-11.0976
読む	-11.0977
使者	-11.0978
に終わり	-11.0979
広がり	-11.0982
を集めた	-11.0984
号車	-11.0987
敵対	-11.0989
響	-11.0989
▁vi	-11.099
たびたび	-11.0994
世と	-11.0994
長岡	-11.0995
1870	-11.0995
のキャラクター	-11.0996
ウリ	-11.0996
ないもの	-11.0997
間隔	-11.1
を終えた	-11.1
述べる	-11.1001
の人口は	-11.1004
安政	-11.1004
シカ	-11.1005
野党	-11.1006
ite	-11.1006
世紀から	-11.1006
▁ar	-11.1008
リヤ	-11.1009
1871	-11.1009
リアル	-11.101
唄	-11.101
弾薬	-11.1014
用いる	-11.1015
面に	-11.1018
信者	-11.1018
商店	-11.1019
然と	-11.102
哉	-11.1022
検定	-11.1022
ワークス	-11.1026
かかる	-11.103
開催されている	-11.1031
立つ	-11.1031
短期大学	-11.1031
の一覧	-11.1031
アリーナ	-11.1033
成田	-11.1037
タカ	-11.1037
データベース	-11.1038
を超え	-11.1038
開館	-11.1042
エム	-11.1042
関節	-11.1043
チャンス	-11.1044
閲覧	-11.1047
土曜日	-11.1048
1961	-11.1051
port	-11.1052
大聖堂	-11.1054
グローバル	-11.1059
セレ	-11.106
を上げ	-11.106
農家	-11.106
倉庫	-11.1061
識別	-11.1061
の後継	-11.1062
遣	-11.1063
力士	-11.1063
流入	-11.1063
最初は	-11.1065
次のように	-11.1067
民主主義	-11.1069
登記	-11.107
映画館	-11.1071
パッ	-11.1072
で敗れた	-11.1072
1895	-11.1076
隻の	-11.1079
中盤	-11.108
海底	-11.108
川町	-11.1081
日野	-11.1081
0.5	-11.1081
扱	-11.1084
が起こった	-11.1084
習慣	-11.1084
見られる	-11.1084
3,000	-11.1088
活性	-11.109
記載されている	-11.109
の設定	-11.109
セッション	-11.1091
反撃	-11.1091
影響を受けた	-11.1091
tre	-11.1092
スタンド	-11.1094
1880	-11.1094
達が	-11.1095
年春	-11.1099
走る	-11.11
論じ	-11.11
倫理	-11.1101
キハ	-11.1102
tc	-11.1104
芝居	-11.1105
を搭載し	-11.1106
▁1951	-11.1106
と結婚し	-11.1106
コンクリート	-11.1114
の墓	-11.1115
備え	-11.1116
リトル	-11.1118
元素	-11.1118
乗降	-11.1119
移行	-11.1121
nu	-11.1122
対空	-11.1122
yu	-11.1122
革新	-11.1124
ッキング	-11.1128
mor	-11.1129
プレミアリーグ	-11.1129
事から	-11.1129
警告	-11.1131
参謀	-11.1131
エッ	-11.1132
触れ	-11.1133
語っている	-11.1135
やって	-11.1135
max	-11.1136
推測	-11.1138
翌年の	-11.114
小田原	-11.1141
▁初代	-11.1141
原型	-11.1142
にほん	-11.1143
▁1938	-11.1143
分間	-11.1144
しげ	-11.1144
落下	-11.1144
を演じた	-11.1147
かける	-11.1147
たちを	-11.115
するとともに	-11.1151
手で	-11.1153
アドレス	-11.1153
を続ける	-11.1153
はフランス	-11.1154
てから	-11.1154
殺された	-11.1154
として生まれる	-11.1155
番目	-11.1157
出身者	-11.1159
親交	-11.1159
▁略称は	-11.1164
代数	-11.1164
マーティン	-11.1164
抱	-11.1165
our	-11.1166
と比較して	-11.1168
もあったが	-11.1168
制定された	-11.1169
高知	-11.117
神奈川	-11.1172
-19	-11.1173
を切り	-11.1173
袖	-11.1173
pl	-11.1173
ロッテ	-11.1175
これも	-11.1176
墨	-11.1177
という名	-11.1177
発信	-11.1178
成功した	-11.1182
収録曲	-11.1183
ギュ	-11.1184
カナ	-11.1186
視聴	-11.1186
の指揮	-11.1186
bb	-11.1188
カウ	-11.119
創業者	-11.1191
麗	-11.1191
水中	-11.1192
プライ	-11.1193
取り付け	-11.1195
バイク	-11.1195
まん	-11.1195
足利	-11.1196
食料	-11.1196
があるため	-11.1197
350	-11.1199
マニ	-11.1199
を唱え	-11.1199
テキサス州	-11.1201
タラ	-11.1201
タキ	-11.1203
皇太子	-11.1204
太平洋戦争	-11.1205
セカンド	-11.1206
陣営	-11.1206
▁1936	-11.1209
クタ	-11.1209
麓	-11.121
の一部が	-11.121
個々の	-11.1211
発動	-11.1213
仮名	-11.1217
じょ	-11.1218
2.0	-11.1219
バス停	-11.122
捧げ	-11.122
不要	-11.122
秀吉	-11.1222
んじ	-11.1224
準決勝で	-11.1224
老人	-11.1225
に協力	-11.1225
▁we	-11.1227
fr	-11.1229
陸上競技	-11.1231
地獄	-11.1234
、1966	-11.1235
学区	-11.1237
と比べて	-11.1238
を図った	-11.1238
第二次世界大戦中	-11.124
浅草	-11.124
カレ	-11.1241
代表取締役	-11.1241
hot	-11.1241
和解	-11.1242
精度	-11.1243
vol	-11.1244
失点	-11.1246
勧め	-11.1246
切った	-11.1247
近江	-11.1248
しているため	-11.1248
ヴィチ	-11.1248
テール	-11.1249
ゴス	-11.1249
スピ	-11.125
突破	-11.1251
歌い	-11.1255
1948	-11.1256
頃には	-11.1257
えて	-11.1257
方法で	-11.1258
争	-11.1258
に分かれ	-11.1259
下位	-11.1259
運命	-11.126
日本国内で	-11.1261
広大な	-11.1263
緩	-11.1264
リウム	-11.1264
就航	-11.1265
の代わりに	-11.1265
分かれ	-11.1265
改訂	-11.1266
ショット	-11.1271
三木	-11.1274
収益	-11.1275
排	-11.1275
リレー	-11.1276
電流	-11.1278
ラッ	-11.1278
しろ	-11.1278
招集	-11.1279
アメリカでは	-11.1279
右翼	-11.1281
自体が	-11.1282
予告	-11.1284
区画	-11.1284
間は	-11.1284
に立つ	-11.1286
マウント	-11.1286
摂取	-11.1286
オイル	-11.1287
二つ	-11.1287
ソンは	-11.1291
トラン	-11.1292
青春	-11.1292
▁現代	-11.1292
美濃	-11.1293
アイランド	-11.1294
公式に	-11.1296
年目の	-11.1296
1868	-11.1298
実質的に	-11.1299
仮説	-11.13
水を	-11.1301
出場し	-11.1303
が残っている	-11.1304
グレード	-11.1304
われる	-11.1305
参加している	-11.1306
を介して	-11.1306
の一員	-11.1308
市販	-11.1311
詠	-11.1311
兄の	-11.1312
開幕戦	-11.1312
の活動	-11.1313
▁一般に	-11.1316
ワル	-11.1317
にそれぞれ	-11.1318
三井	-11.132
こちら	-11.1322
出場機会	-11.1323
批評家	-11.1325
▁with	-11.1327
1958	-11.1327
子を	-11.1328
を採用している	-11.1329
死体	-11.133
心臓	-11.1331
撃沈	-11.1331
日本映画	-11.1332
人から	-11.1333
次に	-11.1335
前回	-11.1336
震	-11.1337
労働組合	-11.1337
は既に	-11.1338
場合が多い	-11.1338
アーサー	-11.1342
されておらず	-11.1342
タケ	-11.1343
ドメイン	-11.1343
与えられた	-11.1344
盛り	-11.1344
▁今	-11.1344
として知られている	-11.1345
賜	-11.1345
sha	-11.1346
彼に	-11.1346
▁以前は	-11.1346
セリエ	-11.1347
ドリー	-11.1347
ゾー	-11.1347
肉体	-11.1348
駿	-11.1352
ブス	-11.1353
-11	-11.1354
発生した	-11.1355
技能	-11.1356
体操	-11.1357
ターボ	-11.1358
大量に	-11.1359
異なり	-11.1359
をつけ	-11.136
繁栄	-11.1362
fu	-11.1365
nc	-11.1365
プロセッサ	-11.1365
全身	-11.1366
ことによる	-11.1366
リーナ	-11.1367
以上に	-11.1367
およびその	-11.1368
文学部	-11.137
歌う	-11.137
を収録した	-11.1371
会合	-11.1372
を書いた	-11.1376
葬儀	-11.1377
ボーン	-11.1378
外見	-11.1379
のもとに	-11.138
イラ	-11.1387
lin	-11.1387
かさ	-11.1388
ムスリム	-11.1388
東南アジア	-11.1389
会社である	-11.1389
と思う	-11.139
傍	-11.1391
タイトルは	-11.1392
航空会社	-11.1392
レディ	-11.1392
販	-11.1393
uc	-11.1396
▁as	-11.1397
因子	-11.1397
ボイ	-11.1398
角度	-11.1399
jp	-11.1399
fer	-11.1401
の生活	-11.1403
皇子	-11.1404
配下	-11.1405
イア	-11.1405
と呼称	-11.1406
を下	-11.1407
補佐	-11.141
演習	-11.141
本作品	-11.1411
出身で	-11.1412
毛利	-11.1415
ジェン	-11.1415
は各	-11.1416
法廷	-11.1416
相手に	-11.1417
らと共に	-11.1418
開催される	-11.142
必ずしも	-11.142
知られた	-11.1423
はドイツ	-11.1424
ッコ	-11.1427
後藤	-11.1428
踏み	-11.1428
造り	-11.1428
軍と	-11.1429
最小	-11.1429
が開発した	-11.143
ミラノ	-11.1432
afc	-11.1433
和歌山	-11.1434
配慮	-11.1435
夫の	-11.1442
を変え	-11.1446
をとった	-11.1447
藩士	-11.1447
外務省	-11.1448
マウス	-11.1449
えば	-11.1451
ユニオン	-11.1453
麦	-11.1453
事業を	-11.1454
形式で	-11.1455
認証	-11.1456
みられる	-11.1457
南東部	-11.1462
増強	-11.1464
、1947	-11.1464
駆逐隊	-11.1466
なのか	-11.1468
john	-11.1468
アンナ	-11.1469
ance	-11.147
ピット	-11.147
らん	-11.1471
再会	-11.1471
部分に	-11.1472
の主要な	-11.1472
就職	-11.1474
▁実際	-11.1476
どちらも	-11.1476
1956	-11.1478
禄	-11.1481
3-0	-11.1483
渓	-11.1484
福田	-11.1485
ロシア語	-11.1489
検察	-11.1491
犠牲	-11.1492
▁趣味は	-11.1493
騎乗	-11.1494
ニューヨーク市	-11.1495
優位	-11.1495
3.5	-11.1495
るようになり	-11.1495
隊は	-11.1499
を残す	-11.15
勘	-11.15
体を	-11.15
の世帯数と人口は以下の通りである	-11.15
が生じる	-11.1504
甲府	-11.1504
経歴	-11.1504
カトリック教会	-11.1506
1913	-11.1507
修士	-11.1508
北軍	-11.1508
物体	-11.1508
、1963	-11.1509
リーズ	-11.1509
を目指して	-11.1511
中東	-11.1511
機関銃	-11.1511
ジル	-11.1512
ler	-11.1513
三重	-11.1513
最高位	-11.1514
推移	-11.1514
マルクス	-11.1516
アンダー	-11.1516
看護	-11.1516
の愛称	-11.1517
ロマ	-11.152
ダイヤモンド	-11.152
テック	-11.152
▁da	-11.1523
を離れ	-11.1525
神田	-11.1526
らとともに	-11.1526
覆	-11.1527
告	-11.1527
の経営	-11.1528
の大半	-11.153
経由で	-11.1531
の歌	-11.1531
の公式	-11.1532
北条	-11.1533
ker	-11.1533
党首	-11.1536
小山	-11.1538
オオ	-11.1539
嫁	-11.154
ユーゴスラビア	-11.1541
相互作用	-11.1542
を伴う	-11.1543
-16	-11.1544
黙	-11.1548
なくても	-11.1552
未だ	-11.1553
もともと	-11.1558
番手	-11.1558
錯	-11.1559
ダメージ	-11.1559
を挟んで	-11.1559
に指定された	-11.1559
06	-11.156
撮	-11.156
作風	-11.1562
1955	-11.1562
▁愛称は	-11.1563
が最も	-11.1563
視覚	-11.1564
流出	-11.1564
機を	-11.1565
この時点で	-11.1566
コミューン	-11.1567
ボロ	-11.1568
変わって	-11.1569
置かれ	-11.1569
▁国際	-11.157
総選挙	-11.157
▁at	-11.157
メジャーデビュー	-11.157
をもたらした	-11.1571
oh	-11.1572
異なっている	-11.1573
歴史家	-11.1573
位置づけ	-11.1574
に変え	-11.1575
に出る	-11.1578
国産	-11.158
クラーク	-11.158
折り	-11.1582
出荷	-11.1583
以後は	-11.1585
近代化	-11.1586
組み込まれ	-11.1586
これらは	-11.1587
の前で	-11.1587
忌	-11.159
倶楽部	-11.1592
▁su	-11.1594
チル	-11.1594
叙	-11.1595
さらには	-11.1595
1959	-11.1595
トゥル	-11.1595
隠居	-11.1598
は比較的	-11.1601
廻	-11.1601
低く	-11.1601
没後	-11.1601
島津	-11.1603
埼玉	-11.1603
期には	-11.1604
ーネ	-11.1604
サウ	-11.1604
ことができ	-11.1606
情勢	-11.1606
厳しく	-11.1608
放送される	-11.1608
1952	-11.1609
法を	-11.1609
ドライ	-11.1609
過ごし	-11.1611
解雇	-11.1611
ているため	-11.1611
内にある	-11.1612
市域	-11.1613
胃	-11.1614
マンガ	-11.1615
本店	-11.1617
することにより	-11.1618
界の	-11.1619
出品	-11.162
起こる	-11.1621
センチメートル	-11.1622
自由民主党	-11.1624
まれた	-11.1625
を目的として	-11.1627
切断	-11.1628
かる	-11.1632
建物は	-11.1633
▁mar	-11.1635
エキ	-11.1635
以来の	-11.1637
天文台	-11.1637
動詞	-11.1637
があって	-11.1638
連合国	-11.1639
罰	-11.164
量が	-11.1642
の規定	-11.1643
正体	-11.1643
木材	-11.1646
相模	-11.1647
しかし	-11.1649
基金	-11.1651
▁映画	-11.1651
信濃	-11.1652
無事	-11.1654
著しく	-11.1654
初優勝	-11.1656
見える	-11.1658
無し	-11.1659
中学校に通う場合	-11.1662
と見なされ	-11.1662
▁tour	-11.1664
はアメリカ合衆国	-11.1665
河原	-11.1665
設定されている	-11.1665
サウンドトラック	-11.1667
参加した	-11.1668
等が	-11.1671
遠く	-11.1673
▁それでも	-11.1673
せき	-11.1673
浜松	-11.1673
の色	-11.1673
らす	-11.1674
を備え	-11.1675
象徴	-11.1675
スケート	-11.1675
top	-11.1677
絞	-11.1677
人の基礎自治体	-11.1678
ダンサー	-11.1678
交響楽団	-11.1678
塊	-11.168
1873	-11.1681
ram	-11.1681
妖怪	-11.1682
スケール	-11.1683
胆	-11.1684
シフト	-11.1686
警察官	-11.1686
1894	-11.1688
led	-11.1688
盛岡	-11.1689
食べる	-11.169
を制作	-11.1692
テラ	-11.1693
リカ	-11.1694
笛	-11.1695
単なる	-11.1695
企業の	-11.1695
▁du	-11.1696
、1961	-11.1697
tra	-11.1699
の基本	-11.1699
アーズ	-11.17
ウェン	-11.1701
思われ	-11.1702
動機	-11.1703
戦死した	-11.1704
エド	-11.1705
方面へ	-11.1705
特撮	-11.1708
力学	-11.1709
されることになった	-11.1709
知名度	-11.1711
総額	-11.1711
単純な	-11.1712
の状態	-11.1713
実質	-11.1713
開かれた	-11.1713
データを	-11.1713
に移った	-11.1714
ザル	-11.1715
訪	-11.1715
イニング	-11.1718
砕	-11.1718
蜂起	-11.1718
fw	-11.1719
妻の	-11.172
str	-11.1721
墳	-11.1721
朝日放送	-11.1722
を誇る	-11.1724
ハウゼン	-11.1724
出雲	-11.1724
関わり	-11.1724
夏季	-11.1725
氏族	-11.1726
ベッド	-11.1727
エウ	-11.1728
ことになり	-11.1728
最終回	-11.173
公募	-11.173
救	-11.173
、1962	-11.1732
1911	-11.1734
室町時代	-11.1736
スターリン	-11.1736
ソウ	-11.1737
放送されていた	-11.1738
マーケット	-11.1738
並びに	-11.1738
出され	-11.1739
_3	-11.174
の種類	-11.1743
橘	-11.1743
ring	-11.1745
自衛隊	-11.1745
こともできる	-11.1747
を製作	-11.1747
が成立した	-11.1747
、1948	-11.1748
南軍	-11.175
年夏	-11.1751
もあるが	-11.1753
360	-11.1754
ザクセン	-11.1754
近藤	-11.1755
を目指した	-11.1756
ova	-11.1756
ペルー	-11.1756
ピュ	-11.1757
貨	-11.1757
誤り	-11.1758
行っていた	-11.1759
を立て	-11.1761
中立	-11.1763
関連の	-11.1767
win	-11.1767
学ぶ	-11.1768
の諸	-11.177
門下	-11.1771
流れる	-11.1771
報酬	-11.1772
理由として	-11.1773
徳川家	-11.1773
の伝統	-11.1776
京阪	-11.1779
を置き	-11.178
ウォル	-11.1781
ができ	-11.1782
毎に	-11.1782
親友	-11.1783
線で	-11.1783
ることになる	-11.1784
気温	-11.1784
送られた	-11.1785
赤色	-11.1785
把握	-11.1785
簡単に	-11.1786
▁1933	-11.1786
に行った	-11.1787
科目	-11.1788
猟	-11.1789
ーブ	-11.1789
年後	-11.1789
定める	-11.1789
も行っている	-11.1795
最後まで	-11.1797
リーガ	-11.1797
プレミアム	-11.1798
銀座	-11.1798
ニエ	-11.18
、1930	-11.18
崩	-11.1802
が認められ	-11.1803
友好	-11.1803
ラグ	-11.1812
は少ない	-11.1812
序盤	-11.1815
それ以降	-11.1815
以内に	-11.1817
rock	-11.1819
曲は	-11.1819
代々	-11.182
決勝戦	-11.1821
車で	-11.1822
が開始され	-11.1823
数を	-11.1823
見せ	-11.1825
オレンジ	-11.1826
渡り	-11.1829
ハッ	-11.1832
作曲した	-11.1832
の距離	-11.1833
三つ	-11.1839
西ドイツ	-11.1839
現役引退	-11.1841
ぴ	-11.1841
の定義	-11.1841
レフ	-11.1842
日光	-11.1842
をもたらす	-11.1845
ヲ	-11.1845
支給	-11.1846
ずる	-11.1848
行動を	-11.1848
のひとつである	-11.1851
川沿い	-11.1851
肢	-11.1852
を占め	-11.1853
飯田	-11.1855
学校法人	-11.1857
▁他にも	-11.1857
撃墜	-11.186
ヶ所	-11.186
粗	-11.1862
越後	-11.1863
日本の元	-11.1867
崩れ	-11.1868
入居	-11.1869
遅	-11.1871
立った	-11.1872
news	-11.1873
アイデア	-11.1874
スン	-11.1875
是	-11.1875
同地	-11.1877
ファイター	-11.1877
分から	-11.1878
圭	-11.1882
特典	-11.1883
いし	-11.1885
は不	-11.1886
同校	-11.1887
誰も	-11.1889
同月	-11.1893
が決まった	-11.1894
mil	-11.1894
エラ	-11.1895
記者会見	-11.1895
1872	-11.1895
をつける	-11.1896
マック	-11.1896
lf	-11.1897
ストア	-11.1899
胴体	-11.1902
普段	-11.1905
であることが	-11.1905
表明	-11.1907
遼	-11.1908
inter	-11.1908
含む	-11.1908
出口	-11.191
ハリー	-11.191
の番組	-11.1912
air	-11.1913
ぎょう	-11.1913
標的	-11.1913
なって	-11.1915
映画祭	-11.1916
地域では	-11.1916
荷物	-11.1919
アンテナ	-11.1919
用水	-11.1919
人口の	-11.1919
ッグ	-11.192
区にある	-11.1921
二人は	-11.1921
シーズンの	-11.1924
とくに	-11.1925
チームメイト	-11.1926
スケ	-11.1927
車庫	-11.1931
まつり	-11.1931
これまでの	-11.1931
が主流	-11.1934
生存	-11.1934
シルバー	-11.1936
オラ	-11.1937
1907	-11.1937
車が	-11.1939
矛盾	-11.1939
ken	-11.1939
毎月	-11.1942
ラート	-11.1943
教科書	-11.1943
カロ	-11.1943
▁ii	-11.1945
は同年	-11.1945
審査員	-11.1946
廃止され	-11.1946
もその	-11.1946
生え	-11.1947
文政	-11.1947
キーボード	-11.1948
っぱ	-11.1948
表示される	-11.1949
億ドル	-11.1949
飛ば	-11.1952
期間中	-11.1952
落選	-11.1954
貫通	-11.1954
捕獲	-11.1954
open	-11.1954
を与えられ	-11.1955
レアル	-11.1955
を結成し	-11.1955
位相	-11.1957
サーキット	-11.1957
田川	-11.1958
出身のサッカー選手	-11.1962
支払	-11.1962
渋	-11.1963
腫	-11.1963
ベール	-11.1963
メニュー	-11.1965
しやすい	-11.1965
安全保障	-11.1965
ラーメン	-11.1966
タイムズ	-11.1968
根本	-11.1969
光学	-11.197
詳しく	-11.1971
の人気	-11.1972
を避け	-11.1973
に初めて	-11.1975
寄せ	-11.1975
どんな	-11.1976
、1949	-11.1982
謀	-11.1984
ンダ	-11.1985
セックス	-11.1986
留め	-11.1987
笹	-11.1987
ウイ	-11.1988
1915	-11.1989
▁man	-11.199
最強	-11.199
没した	-11.1991
たものの	-11.1991
察	-11.1992
ウルトラマン	-11.1992
高崎	-11.1993
回想	-11.1993
、1959	-11.1995
ラッシュ	-11.1995
マルコ	-11.1995
もし	-11.1996
ポルノ	-11.2
ストレート	-11.2
単純	-11.2002
トリア	-11.2002
ix	-11.2002
ブドウ	-11.2002
の代表	-11.2003
ラマ	-11.2003
王妃	-11.2004
鑑賞	-11.2005
着工	-11.2005
中華	-11.2005
の中心地	-11.2006
浄	-11.2008
1893	-11.2009
絡	-11.201
を要する	-11.2011
個性	-11.2011
秩序	-11.2011
の差	-11.2014
としており	-11.2015
部隊の	-11.2016
ガールズ	-11.2016
▁上記の	-11.2017
ではないが	-11.2018
住む	-11.2021
の要素	-11.2022
典型的な	-11.2022
1953	-11.2024
その時	-11.2025
レジ	-11.2025
を超えた	-11.2027
レスリング	-11.2029
かけた	-11.2029
1954	-11.2033
後ろ	-11.2033
畳	-11.2036
初頭	-11.2036
勢い	-11.2037
上場	-11.2038
帰国した	-11.2039
家系	-11.2042
等に	-11.2043
救済	-11.2043
町に	-11.2049
▁その一方で	-11.205
併設	-11.205
マネジメント	-11.2052
陶	-11.2054
ストー	-11.2055
るまで	-11.2055
名詞	-11.2056
rn	-11.2057
賃金	-11.2059
上杉	-11.2059
世界的に	-11.2061
すい	-11.2064
ラト	-11.2064
釈	-11.2065
鄭	-11.2065
干渉	-11.2065
働いた	-11.2066
の建物	-11.2067
を形成し	-11.2068
たとえば	-11.2069
釜	-11.2069
党の	-11.2069
大学文学部	-11.2069
ってしまう	-11.207
シニア	-11.2072
rp	-11.2072
に生まれ	-11.2072
真実	-11.2078
アダム	-11.2078
、1944	-11.2079
〜」	-11.208
ざる	-11.208
最下位	-11.208
付いた	-11.2081
高知県	-11.2082
スペ	-11.2083
噴火	-11.2087
好み	-11.2087
境内	-11.209
をとり	-11.2091
山中	-11.2093
定期的に	-11.2093
ずっと	-11.2096
を付け	-11.2096
保全	-11.2099
鹿島	-11.2099
を指し	-11.2099
副会長	-11.2102
首長	-11.2103
所に	-11.2104
グッド	-11.2105
部位	-11.2105
高等学校卒業	-11.2106
っか	-11.2106
の孫	-11.2107
の一部は	-11.2109
大井	-11.2109
開戦	-11.2112
することによって	-11.2112
年間で	-11.2114
△	-11.2116
1600	-11.2118
グレート	-11.2118
国際的な	-11.2119
このとき	-11.2119
同級生	-11.212
宮崎県	-11.212
阿部	-11.212
支線	-11.2121
車両の	-11.2121
斜	-11.2122
ef	-11.2124
ワース	-11.2124
1939	-11.2124
テレビ放送	-11.2124
ウィー	-11.2126
されていなかった	-11.2126
るようになる	-11.2127
沿いに	-11.2127
ウエスト	-11.2128
筆頭	-11.2128
ris	-11.2128
1908	-11.2129
伏見	-11.213
オレ	-11.213
、1958	-11.2132
米ドル	-11.2132
免疫	-11.2132
予定だったが	-11.2132
凶	-11.2133
グロー	-11.2133
に売却	-11.2134
上述の	-11.2134
ピアニスト	-11.2135
ダス	-11.2136
▲	-11.2137
方は	-11.2139
列車は	-11.2139
年代初頭	-11.214
▁高校	-11.214
引き上げ	-11.214
を維持し	-11.214
wo	-11.214
津波	-11.2141
学的	-11.2141
▁もともと	-11.2144
予定である	-11.2146
1884	-11.2147
1888	-11.2148
玩具	-11.2148
南京	-11.2148
独裁	-11.2149
行使	-11.2149
▁ある	-11.2149
シロ	-11.215
思い出	-11.2151
赤字	-11.2152
本作は	-11.2152
いけ	-11.2154
貴重な	-11.2154
二人の	-11.2155
別に	-11.2155
結ばれ	-11.2155
ハルト	-11.2156
朝鮮半島	-11.2159
フォート	-11.216
小学	-11.2161
qua	-11.2162
食用	-11.2164
を再	-11.2164
はないが	-11.2165
相対	-11.2168
はら	-11.2169
さら	-11.217
に改称	-11.2172
謎の	-11.2173
セク	-11.2174
コンパクト	-11.2174
ッチャー	-11.2174
サンダー	-11.2177
排出	-11.2178
年頃から	-11.2178
という設定	-11.2179
理由で	-11.2181
1951	-11.2182
充	-11.2182
の技術	-11.2182
ものが多い	-11.2183
▁→	-11.2186
役職	-11.2188
機材	-11.2188
語源	-11.2188
ビリー	-11.2189
▁1932	-11.219
キャン	-11.2191
に復帰した	-11.2192
を取った	-11.2192
▁ひろ	-11.2193
会津	-11.2194
謝	-11.2194
することが可能	-11.2195
8000	-11.2198
1891	-11.2199
1957	-11.2199
取扱	-11.2199
ベス	-11.22
小学館	-11.2201
勧告	-11.2201
町名	-11.2202
▁続く	-11.2202
クラスの	-11.2202
の運用	-11.2203
google	-11.2203
が得られる	-11.2203
イカ	-11.2204
人も	-11.2204
インドの	-11.2207
方法は	-11.2208
マレー	-11.2208
奴	-11.2208
がよく	-11.2209
を作って	-11.2211
した結果	-11.2211
いで	-11.2213
郷土	-11.2215
zo	-11.2215
サリ	-11.2215
かね	-11.2218
のシングル	-11.2218
書いている	-11.2218
放送されている	-11.2222
指令	-11.2223
失われた	-11.2223
wba	-11.2224
を加え	-11.2225
内蔵	-11.2226
ハンター	-11.2226
飲料	-11.2226
に転向	-11.2228
本形式	-11.2228
gl	-11.2228
社会党	-11.2233
bra	-11.2234
オロ	-11.2235
学士	-11.2236
滑走路	-11.2236
不定期	-11.2236
幅広く	-11.2237
ata	-11.2239
州刺史	-11.2241
閉店	-11.2241
が開催された	-11.2242
点を	-11.2243
日産	-11.2244
1885	-11.2245
mvp	-11.2246
ルク	-11.2247
母体	-11.2248
プラザ	-11.2248
チェス	-11.2249
撤退した	-11.2249
島根県	-11.2251
を余儀なくされた	-11.2251
鳥類	-11.2252
佐野	-11.2256
音響	-11.2258
残存	-11.2259
ワード	-11.2261
主人公の	-11.2262
に向けた	-11.2262
策定	-11.2263
スポ	-11.2266
開始された	-11.2266
つけられ	-11.2267
交際	-11.227
すみ	-11.227
ぶつ	-11.2271
乗車券	-11.2272
食べ	-11.2273
っち	-11.2273
に復帰	-11.2273
を設け	-11.2274
階に	-11.2274
親子	-11.2274
が発表され	-11.2275
タク	-11.2275
国土交通省	-11.2275
▁+	-11.2276
ヒン	-11.2277
国土	-11.2279
4000	-11.2279
臭	-11.228
直前の	-11.2281
晃	-11.2281
▁fa	-11.2281
訪れた	-11.2282
率が	-11.2282
回目	-11.2283
産地	-11.2283
学科卒業	-11.2283
主流	-11.2284
前進	-11.2284
たのは	-11.2284
は多くの	-11.2285
頻度	-11.2285
を満たす	-11.2286
に巻き込まれ	-11.2287
続けて	-11.2288
出会った	-11.2289
志願	-11.2289
メロディ	-11.2291
決戦	-11.2294
株主	-11.2294
まとめ	-11.2295
の土地	-11.2295
▁花	-11.2297
存在した	-11.2299
血液	-11.2301
貢	-11.2302
注釈	-11.2302
代わり	-11.2309
ニョ	-11.2309
採掘	-11.231
管制	-11.2311
を考え	-11.2311
今度は	-11.2312
地域は	-11.2312
を示している	-11.2314
о	-11.2317
中佐	-11.2318
降下	-11.2318
欠場	-11.232
ドラえもん	-11.2321
あら	-11.2322
チェル	-11.2323
平等	-11.2324
鉱物	-11.2326
されてしまう	-11.2326
萩	-11.2327
婦人	-11.233
▁1934	-11.233
pre	-11.2332
スキル	-11.2332
家康	-11.2333
金銭	-11.2333
心を	-11.2334
日本海軍	-11.2334
があること	-11.2335
を目的とした	-11.2336
1886	-11.2338
厩舎	-11.234
eg	-11.2341
pan	-11.2341
デバイス	-11.2342
両が	-11.2343
こちらは	-11.2344
描かれ	-11.2344
ビング	-11.2345
▁ver	-11.2346
科学技術	-11.2346
背番号	-11.2348
をかけ	-11.2349
アプローチ	-11.235
増え	-11.2351
使える	-11.2353
ツォ	-11.2354
傾斜	-11.2354
、1940	-11.2354
鳥取	-11.2356
と同一	-11.2358
上は	-11.2359
軽減	-11.2359
ji	-11.236
斑	-11.2361
台頭	-11.2361
カワ	-11.2362
リメイク	-11.2362
初勝利	-11.2363
の記事	-11.2363
商業施設	-11.2364
しておらず	-11.2365
こうとうがっこう	-11.2365
ue	-11.2366
暗号	-11.2369
アンリ	-11.237
レンタル	-11.2373
の部分	-11.2374
投球	-11.2375
に影響	-11.2375
三丁目	-11.2377
告白	-11.2377
ミール	-11.2377
ブラッド	-11.2378
鍋	-11.2379
るよう	-11.2381
リース	-11.2381
キット	-11.2383
▁サン	-11.2385
粒	-11.2385
ことであった	-11.2387
."	-11.2388
に乗って	-11.2389
声が	-11.2389
教徒	-11.239
ネーム	-11.2392
のなかで	-11.2393
ライオン	-11.2394
に仕え	-11.2394
遅く	-11.2395
シドニー	-11.2396
湊	-11.2398
イタリア共和国	-11.2399
ァ	-11.2399
彼女が	-11.24
ザール	-11.24
マジック	-11.2401
の意見	-11.2401
▁car	-11.2402
坑	-11.2404
▁そんな	-11.2404
レンジャー	-11.2406
ven	-11.2407
ディスプレイ	-11.2407
十分に	-11.2407
、1955	-11.2408
子に	-11.2408
天下	-11.2409
理念	-11.241
やその	-11.2411
ホンダ	-11.2412
天神	-11.2414
イロ	-11.2414
掘	-11.2415
の管理	-11.2416
合った	-11.2416
リッチ	-11.2416
全体で	-11.2417
会議で	-11.242
エンタテインメント	-11.2421
量の	-11.2422
見直し	-11.2423
者と	-11.2423
鮮	-11.2424
写本	-11.2424
出てくる	-11.2424
所で	-11.2425
親衛隊	-11.2425
エビ	-11.2426
想	-11.2426
曽	-11.2426
▁天	-11.2428
産物	-11.2428
委員会は	-11.2429
6000	-11.2429
、1956	-11.2431
女性が	-11.2432
度に	-11.2433
仮想	-11.2433
無視	-11.2434
師匠	-11.2435
命名された	-11.2436
mat	-11.2436
アルゴリズム	-11.2437
彼らが	-11.2437
所在	-11.2439
訪れ	-11.2441
送られ	-11.2441
靖	-11.2445
ジュー	-11.2446
エレベーター	-11.2447
の一種である	-11.2448
宿泊	-11.2449
配信された	-11.2449
療養	-11.2451
レム	-11.2452
する際	-11.2453
還元	-11.2461
▁京都	-11.2461
くれ	-11.2461
と称し	-11.2462
メチル	-11.2463
首都圏	-11.2464
▁隣接するコムーネは以下の通り	-11.2464
領事	-11.2464
追跡	-11.2465
を実施した	-11.2465
会う	-11.2466
っこ	-11.2469
傾	-11.2469
リティ	-11.2469
係数	-11.247
周囲に	-11.2471
時間を	-11.2471
日立	-11.2472
慎	-11.2472
sen	-11.2473
運転台	-11.2477
番号は	-11.2479
1892	-11.248
創始	-11.248
td	-11.248
珍しく	-11.248
発行された	-11.2481
設計された	-11.2481
作品として	-11.2483
トップチーム	-11.2485
支社	-11.2485
の発生	-11.2487
も務めた	-11.2487
一気に	-11.2489
條	-11.2489
の企画	-11.2491
農場	-11.2492
▁江戸時代	-11.2493
▁system	-11.2495
災	-11.2495
アリー	-11.2496
工程	-11.2497
判明	-11.2497
仰	-11.2499
独自に	-11.25
成立した	-11.2501
じま	-11.2502
イング	-11.2502
のタイトル	-11.2505
ロボ	-11.2505
進展	-11.2507
の支持	-11.2507
点が	-11.2508
農地	-11.2509
オールスター	-11.251
コレ	-11.251
エミ	-11.2512
バナ	-11.2513
挿入	-11.2513
バイト	-11.2514
誓	-11.2515
マネー	-11.2517
渓谷	-11.2517
アース	-11.2517
旗本	-11.2518
立体	-11.2518
マリン	-11.2519
になってから	-11.2519
1887	-11.2519
に残る	-11.252
半径	-11.2521
......	-11.2522
招聘	-11.2523
ライナー	-11.2523
成績は	-11.2523
以内	-11.2523
東京帝国大学	-11.2524
千人	-11.2527
荒川	-11.2529
ting	-11.2529
▁これに対し	-11.2529
を追い	-11.253
書類	-11.2531
と称される	-11.2532
に対応した	-11.2532
議会議員	-11.2533
用地	-11.2533
受けた	-11.2535
の養子	-11.2535
に建設された	-11.2536
中央区	-11.2536
アンドレ	-11.2537
仮定	-11.2537
実戦	-11.2537
補強	-11.254
南朝	-11.2541
参議院	-11.2541
伝える	-11.2543
を奪われ	-11.2544
キシ	-11.2546
かれる	-11.2546
活動している	-11.2547
人として	-11.2547
1916	-11.2548
彗星	-11.2548
町域	-11.2548
メトロ	-11.2548
スペインの	-11.2549
浸透	-11.255
を進める	-11.2551
月中旬	-11.2554
tion	-11.2554
シュタット	-11.2556
かかり	-11.2557
倭	-11.2558
と共演	-11.256
ロックバンド	-11.2562
に生息する	-11.2562
外国語	-11.2565
で行う	-11.2566
審議会	-11.2567
棋士	-11.2567
話を	-11.2568
で構成され	-11.2568
改築	-11.2568
▁この他	-11.2569
プリン	-11.2569
iz	-11.2569
名乗り	-11.2569
本当に	-11.2571
まっている	-11.2572
主権	-11.2573
基本的には	-11.2574
が可能な	-11.2574
1937	-11.2574
スと	-11.2575
埋葬	-11.2575
が行われていた	-11.2576
体は	-11.2577
符号	-11.2577
邸宅	-11.2577
ベースボール	-11.2578
が決定した	-11.2579
住民の	-11.258
の発売	-11.2581
マイナー	-11.2581
種別	-11.2581
を築いた	-11.2582
収録されている	-11.2582
の監督	-11.2584
star	-11.2586
考案	-11.2586
様な	-11.2587
▁lo	-11.2589
{	-11.2589
アルメニア	-11.2589
血管	-11.259
が含まれている	-11.2591
されたこと	-11.2591
ことはできない	-11.2591
運搬	-11.2591
斜面	-11.2592
を意味し	-11.2594
訪れる	-11.2594
言えば	-11.2594
長に就任	-11.2595
太字	-11.2597
制作した	-11.2598
ピオ	-11.2599
地面	-11.26
通っている	-11.26
ブン	-11.2601
どのような	-11.2601
調節	-11.2602
○	-11.2603
休日	-11.2604
プレーヤー	-11.2604
神学	-11.2605
建てられた	-11.2605
明るい	-11.2605
ウェア	-11.2606
の一つとして	-11.2607
のライブ	-11.2608
emi	-11.2608
ことにした	-11.261
クリスチャン	-11.261
哲学者	-11.261
★	-11.2611
ek	-11.2613
がなされ	-11.2614
馬力	-11.2617
を演じ	-11.2617
を掛け	-11.2618
柴	-11.2618
マット	-11.2618
奪三振	-11.2619
望遠鏡	-11.2619
ヘー	-11.262
で構成されている	-11.2622
進め	-11.2623
gh	-11.2623
▁従って	-11.2627
史上初の	-11.2628
日程	-11.2631
顎	-11.2632
わせ	-11.2632
学校の	-11.2633
年代前半	-11.2633
ドッグ	-11.2634
▁1928	-11.2634
ari	-11.2635
していて	-11.2635
さらなる	-11.2636
の意向	-11.2636
きり	-11.2638
は中国	-11.2638
メラ	-11.2639
慶應義塾大学	-11.264
ドック	-11.264
乗務員	-11.2641
μ	-11.2641
撤去	-11.2642
カルロス	-11.2643
サント	-11.2643
工場で	-11.2644
セキュリティ	-11.2645
終了し	-11.2645
請	-11.2645
、1952	-11.2648
1905	-11.265
加熱	-11.265
なっていった	-11.2651
と思い	-11.2651
の拡大	-11.2653
そんな	-11.2654
▁これに対して	-11.2654
決定戦	-11.2654
を送った	-11.2657
タナ	-11.2657
通学	-11.2657
づき	-11.2658
たちと	-11.2659
を執筆	-11.2659
、1954	-11.2661
初当選	-11.2662
旗艦	-11.2663
でプレー	-11.2664
ものだ	-11.2665
海軍の	-11.2667
サマー	-11.2668
切って	-11.2668
法学	-11.2671
バルト	-11.2674
▁1935	-11.2675
書を	-11.2676
出される	-11.2676
▁ta	-11.2676
をマーク	-11.2679
くま	-11.268
することもある	-11.2681
拾	-11.2682
-』	-11.2683
を目指し	-11.2683
終わる	-11.2683
こともあって	-11.2684
の起源	-11.2684
ことができない	-11.2685
台詞	-11.2685
事務局	-11.2687
上空	-11.2688
土器	-11.2689
明確な	-11.2689
暖	-11.2689
東京府	-11.269
所得	-11.269
フィギュアスケート	-11.269
放送時間	-11.269
殺害された	-11.269
を担う	-11.2699
下院	-11.27
海水	-11.2701
ファイト	-11.2701
広島市	-11.2702
シーズンに	-11.2704
慕容	-11.2705
央	-11.2705
を追加	-11.2709
事前に	-11.271
他人	-11.2711
の武将	-11.2712
正常	-11.2712
することも	-11.2713
年秋	-11.2714
軽量	-11.2715
本来は	-11.2718
現在まで	-11.2719
第五	-11.272
▁血液型は	-11.2721
裁判官	-11.2723
ニッ	-11.2723
それでも	-11.2724
源氏	-11.2724
年後に	-11.2725
救急	-11.2727
直轄	-11.2727
主催の	-11.2727
で放送	-11.2727
を深め	-11.2728
の協力	-11.2728
っていたが	-11.2728
犠牲者	-11.2729
の象徴	-11.2729
助言	-11.2731
ブレイク	-11.2731
ier	-11.2732
とみられる	-11.2732
使用できる	-11.2732
付与	-11.2733
play	-11.2733
pop	-11.2734
消化	-11.2734
自動的に	-11.2737
敦	-11.2738
▁cd	-11.2738
知らない	-11.2739
狩猟	-11.274
コック	-11.2741
ムハンマド	-11.2742
を受けていた	-11.2743
困難な	-11.2748
ure	-11.2748
メンバーは	-11.2748
無理	-11.2748
久保	-11.2749
の組み合わせ	-11.2749
はかなり	-11.275
再興	-11.275
移動する	-11.2751
として参加	-11.2753
庶民	-11.2754
は無かった	-11.2755
佐世保	-11.2756
ium	-11.2756
タウ	-11.2757
フランツ	-11.2758
南北に	-11.2758
チャンピオンズリーグ	-11.2758
ことができなかった	-11.276
債	-11.2761
▁sp	-11.2761
ley	-11.2761
大山	-11.2764
軍用	-11.2764
したとき	-11.2765
特徴的な	-11.2766
牙	-11.2766
1869	-11.2767
人格	-11.2768
▁但し	-11.2768
謎	-11.277
▁イ	-11.277
連動	-11.277
バルブ	-11.2771
の名前は	-11.2771
ial	-11.2771
恐竜	-11.2773
ばかりの	-11.2773
進み	-11.2774
に直接	-11.2775
を決定した	-11.2776
に戻って	-11.2777
開通した	-11.2779
のみを	-11.278
事前	-11.2783
の登場	-11.2785
乗組員	-11.2786
のだ	-11.2786
寄贈	-11.2788
おらず	-11.2788
といわれ	-11.2788
鳥取県	-11.2788
早朝	-11.2788
企業である	-11.2788
1878	-11.2789
cle	-11.279
どちらか	-11.279
なかなか	-11.2792
カレー	-11.2793
、1946	-11.2793
前提	-11.2795
したもので	-11.2795
ことなく	-11.2796
和平	-11.2796
鱗	-11.2796
ローラ	-11.2797
松田	-11.2797
ren	-11.2799
人であり	-11.28
バース	-11.2802
起動	-11.2803
週末	-11.2803
長谷川	-11.2803
の割合	-11.2804
フェルト	-11.2804
批評	-11.2806
命を	-11.2807
理事会	-11.2808
完成した	-11.2808
の名で	-11.2809
nfl	-11.281
皇族	-11.2812
定住	-11.2813
食糧	-11.2813
125	-11.2814
ノア	-11.2814
1909	-11.2814
習得	-11.2814
人組	-11.2814
ことなど	-11.2814
をそのまま	-11.2816
潜水	-11.2816
黒田	-11.2816
クリー	-11.2819
苗	-11.2819
ドルフ	-11.282
バカ	-11.282
首席	-11.282
linux	-11.2823
ませ	-11.2824
手続	-11.2824
▁基本的に	-11.2825
が置かれ	-11.2825
横綱	-11.2826
はならなかった	-11.2826
書いて	-11.2827
アナウンス	-11.2829
▁最終的に	-11.2829
けた	-11.2832
足を	-11.2832
▁z	-11.2833
らしく	-11.2833
わなかった	-11.2836
中継局	-11.2837
利点	-11.2837
に対しても	-11.2838
ウォール	-11.284
ホット	-11.2841
はまた	-11.2841
さわ	-11.2843
las	-11.2843
が発見された	-11.2846
までの間	-11.2846
順序	-11.2848
が低い	-11.285
整数	-11.285
に該当する	-11.285
山陽	-11.2851
突入	-11.2852
そもそも	-11.2853
月号から	-11.2854
を抑え	-11.2855
開校	-11.2855
ブッシュ	-11.2855
頃まで	-11.2856
セガ	-11.2857
倒産	-11.286
最高裁判所	-11.286
試合は	-11.2861
入れ替え	-11.2862
あや	-11.2864
が進み	-11.2865
一門	-11.2865
一般の	-11.2866
hc	-11.2866
図書	-11.2867
橋梁	-11.2868
シナ	-11.2872
サード	-11.2872
へい	-11.2872
が設立され	-11.2873
史跡	-11.2874
に留学	-11.2874
可決	-11.2876
▁この場合	-11.2877
かに	-11.2877
赤軍	-11.2879
サンド	-11.2879
ムン	-11.2881
日午前	-11.2881
あて	-11.2881
兼任	-11.2882
▁1929	-11.2882
に収録	-11.2884
を卒業後	-11.2884
つい	-11.2884
描かれる	-11.2885
はっきり	-11.289
ā	-11.2891
通常盤	-11.2892
水泳	-11.2893
ストック	-11.2893
結果は	-11.2894
実態	-11.2895
チケット	-11.2895
に変更した	-11.2896
元帥	-11.2896
ベッ	-11.2896
▁my	-11.2897
フェイ	-11.2898
oo	-11.2899
深刻な	-11.29
解任	-11.29
育ち	-11.29
出入口	-11.2901
new	-11.2901
撃退	-11.2902
集め	-11.2902
存在していた	-11.2903
▁その際	-11.2903
1936	-11.2905
数多く	-11.2905
福山	-11.2905
告知	-11.2906
年の国勢調査	-11.2906
を越えて	-11.2907
▁1927	-11.2907
と並んで	-11.2907
掲載されている	-11.2909
ずれ	-11.2909
書房	-11.291
青木	-11.291
住吉	-11.2911
▁市立小	-11.2912
を利用し	-11.2912
も含めて	-11.2913
普通の	-11.2913
おん	-11.2914
格闘	-11.2914
喪失	-11.2916
擁護	-11.2916
ボランティア	-11.2918
規	-11.2918
運行されている	-11.2918
一行	-11.292
見え	-11.292
やく	-11.292
ser	-11.2921
でプレーし	-11.2921
見ることができる	-11.2922
テイラー	-11.2923
架空の	-11.2924
西暦	-11.2925
ゃ	-11.2926
面では	-11.2927
ヘリ	-11.2928
アーム	-11.2928
誤解	-11.293
の構造	-11.2931
統括	-11.2931
試合を	-11.2932
主演の	-11.2935
リヒ	-11.2935
も含む	-11.2935
シーズンには	-11.2936
、1957	-11.2936
シエ	-11.2936
異動	-11.2937
越前	-11.294
台地	-11.294
チームを	-11.2942
リン酸	-11.2942
十両	-11.2945
せて	-11.2947
洞窟	-11.2951
ナレーション	-11.2951
本作では	-11.2951
寛政	-11.2951
の拠点	-11.2951
年間に	-11.2953
の名称は	-11.2953
気動車	-11.2954
レイク	-11.2955
は何	-11.296
フード	-11.2961
役の	-11.2961
形に	-11.2961
探索	-11.2961
▁1931	-11.2962
リコ	-11.2963
大型の	-11.2965
書簡	-11.2966
の主な	-11.2966
テリ	-11.2966
進軍	-11.2967
伊東	-11.2972
楠	-11.2973
az	-11.2973
156	-11.2973
見て	-11.2975
外野手	-11.2977
宇宙船	-11.2978
らせた	-11.2979
意思	-11.2979
エリック	-11.2981
ポンプ	-11.2981
は特に	-11.2982
津軽	-11.2982
で約	-11.2983
プレゼント	-11.2984
の役割	-11.2984
表記は	-11.2985
高木	-11.2985
ヴィクトリア	-11.2985
実証	-11.2986
町立	-11.2987
再選	-11.2987
佐賀県	-11.2989
リスナー	-11.299
壮	-11.2991
差異	-11.2992
中日	-11.2995
世界に	-11.2995
van	-11.2995
身長	-11.2999
高地	-11.2999
ハインリヒ	-11.3
パイプ	-11.3
治安	-11.3
変わる	-11.3
寿命	-11.3
法は	-11.3001
▁近年	-11.3003
市で	-11.3003
タービン	-11.3003
捉え	-11.3004
忠実	-11.3004
長は	-11.3006
という形で	-11.3006
題名	-11.3006
1938	-11.3007
ハマ	-11.3007
ユニバーサル	-11.3007
を獲得する	-11.3008
工夫	-11.3008
国際連合	-11.3009
際は	-11.3009
1889	-11.301
モンド	-11.301
名目	-11.3011
幼児	-11.3011
んでおり	-11.3011
円形	-11.3013
となるが	-11.3014
を皮切りに	-11.3014
番組である	-11.3014
酔	-11.3016
食い	-11.3017
akb	-11.3017
発症	-11.3017
北上	-11.3018
同行	-11.3018
薄い	-11.3018
量子	-11.302
を防ぐため	-11.3021
武蔵野	-11.3021
必須	-11.3023
組んだ	-11.3023
難民	-11.3025
ベンチ	-11.3025
1906	-11.3025
今回	-11.303
ボリ	-11.303
研究員	-11.3031
過ごす	-11.3033
ムーン	-11.3035
の計	-11.3037
司祭	-11.3043
1876	-11.3045
101	-11.3045
部門で	-11.3045
受章	-11.3046
名所	-11.3047
派遣された	-11.3047
あれ	-11.3049
ティル	-11.3052
還	-11.3052
有利	-11.3052
日本海	-11.3054
補償	-11.3054
は無く	-11.3054
全車	-11.3055
とみなされ	-11.3056
作動	-11.3056
システムは	-11.3057
爪	-11.3057
パキスタン	-11.3057
破綻	-11.3057
ビート	-11.3058
、1943	-11.3059
浸	-11.306
を対象に	-11.306
一般的には	-11.306
コイ	-11.3061
尼	-11.3062
撃破	-11.3062
ins	-11.3063
テクノロジー	-11.3064
sch	-11.3064
ガメ	-11.3064
ロット	-11.3064
スティック	-11.3065
近隣の	-11.3065
はすでに	-11.3066
ソフトバンク	-11.3067
の総	-11.3068
cho	-11.3068
ボーイング	-11.3069
防災	-11.3069
されることとなった	-11.3069
貨車	-11.307
▁出典	-11.3071
時代劇	-11.3072
に就任する	-11.3074
love	-11.3074
ケア	-11.3074
多大な	-11.3075
川口	-11.3075
▁毎年	-11.3076
ベック	-11.3076
たれ	-11.3076
165	-11.3077
の指導者	-11.3077
出産	-11.3077
同人	-11.3078
どれ	-11.3078
隊の	-11.3079
拳銃	-11.3079
奪	-11.3085
は中華人民共和国	-11.3085
警視庁	-11.3087
、1941	-11.3088
契約を	-11.3088
閣僚	-11.3088
ell	-11.3089
場所は	-11.3089
燃	-11.3092
されることもある	-11.3093
破壊された	-11.3096
高温	-11.3096
減少した	-11.3098
ネコ	-11.3098
フン	-11.3098
に編入された	-11.31
英文	-11.31
箱根	-11.3101
レイン	-11.3102
の中間	-11.3103
交付	-11.3107
パシフィック	-11.3107
二度	-11.3111
ジョージア	-11.3111
自由党	-11.3112
雀	-11.3113
á	-11.3114
▁他	-11.3114
が残る	-11.3115
上方	-11.3118
考古学	-11.3118
バク	-11.3118
弾圧	-11.3119
▁原作	-11.312
▁郵便番号は	-11.312
貸	-11.312
綴	-11.3122
プロ入り	-11.3125
▁1924	-11.3125
▁この時期	-11.3125
を舞台に	-11.3127
▁サ	-11.3128
路線は	-11.3128
審議	-11.3128
▁よし	-11.3128
1.0	-11.3129
芸名	-11.3129
出身の元プロ野球選手	-11.313
を有している	-11.313
蒸気機関車	-11.313
sr	-11.3131
カート	-11.3132
道徳	-11.3132
月曜	-11.3132
世話	-11.3133
潰	-11.3134
制服	-11.3136
肌	-11.3136
症候群	-11.3138
有罪	-11.3139
を高める	-11.3139
いずれ	-11.314
違	-11.314
以降に	-11.314
キリ	-11.3141
略奪	-11.3143
の著作	-11.3145
緊張	-11.3147
bbc	-11.3148
くろ	-11.3148
の友人	-11.315
を訴え	-11.315
ない限り	-11.315
使用している	-11.3151
責	-11.3153
1882	-11.3156
こん	-11.3156
が主	-11.3156
を見せる	-11.3157
河口	-11.3157
重視	-11.3158
▁he	-11.3158
に大きく	-11.3159
社会学	-11.3159
0.1	-11.316
欠点	-11.316
太鼓	-11.316
簿	-11.316
pk	-11.3161
大久保	-11.3161
ou	-11.3161
年生の	-11.3162
グレン	-11.3165
リッジ	-11.3166
ソース	-11.3166
掘り	-11.3166
微分	-11.3167
安定した	-11.3168
パンチ	-11.3169
その結果	-11.3172
聖堂	-11.3175
gr	-11.3176
フスキー	-11.3177
運び	-11.3178
ガム	-11.3178
ことがあった	-11.3179
内容を	-11.3179
パンク	-11.3179
更	-11.3179
大学校	-11.318
不在	-11.318
づくり	-11.318
年次	-11.3181
バブル	-11.3182
を巡って	-11.3182
ファーム	-11.3183
年度から	-11.3184
右側	-11.3185
祖先	-11.3185
ive	-11.3186
川と	-11.3186
神々	-11.3187
帆	-11.3187
ものではなく	-11.3187
1860	-11.3192
と見られる	-11.3192
昨	-11.3192
日本一	-11.3193
ピッチ	-11.3194
路面電車	-11.3195
▁ほか	-11.3196
、1951	-11.3198
▁vol	-11.3199
洪	-11.3201
マンチェスター	-11.3202
に収録されている	-11.3202
実際は	-11.3203
邑	-11.3205
の主張	-11.3205
世紀には	-11.3207
ロッ	-11.3207
メロ	-11.3212
がおり	-11.3212
も含め	-11.3213
用品	-11.3214
nic	-11.3214
▁an	-11.3214
ヴィス	-11.3215
入れた	-11.3215
得た	-11.3216
千代	-11.3217
が続く	-11.3218
生活を	-11.3223
前年の	-11.3223
京王	-11.3224
直し	-11.3225
それほど	-11.3225
父が	-11.3226
簡	-11.3226
小規模な	-11.3227
攻勢	-11.3227
工科大学	-11.3231
に持ち	-11.3232
に選ばれ	-11.3233
死に	-11.3233
積分	-11.3233
指数	-11.3234
集まった	-11.3235
を伝える	-11.3235
おこ	-11.3236
、1953	-11.3238
朝日新聞	-11.3238
会見	-11.324
コイン	-11.324
窪	-11.3241
務める	-11.3242
の選手	-11.3243
窓口	-11.3244
評論	-11.3244
人目	-11.3244
ウィルソン	-11.3244
測量	-11.3245
数え	-11.3245
意志	-11.3248
選出された	-11.3248
はん	-11.3249
枚目の	-11.325
家屋	-11.325
標識	-11.325
慰	-11.325
dia	-11.3252
受け入れられ	-11.3253
抽選	-11.3253
作られる	-11.3254
の大部分	-11.3255
マルク	-11.3255
の勝利	-11.3255
自国	-11.3255
世間	-11.3255
チェスター	-11.3257
投下	-11.3261
教団	-11.3262
父親の	-11.3262
全国大会	-11.3263
で活躍	-11.3263
が設立された	-11.3264
歯科	-11.3265
系図	-11.3266
▁発売元は	-11.3266
に移行	-11.3266
安全性	-11.3266
ディーゼル	-11.3266
愛知県名古屋市	-11.3267
ーレ	-11.3268
注文	-11.327
が生じた	-11.3272
介護	-11.3273
姫路	-11.3273
内外	-11.3273
つつも	-11.3275
あさ	-11.3276
小島	-11.3276
ano	-11.3276
▁それから	-11.3276
今作	-11.3277
熱帯	-11.3279
記録は	-11.3282
インディ	-11.3283
車輪	-11.3283
戦後の	-11.3284
をつけた	-11.3284
を問わず	-11.3287
東アジア	-11.3288
追われ	-11.3289
類の	-11.3289
巡目	-11.329
アキ	-11.3292
告発	-11.3292
アフガニスタン	-11.3293
を寄せ	-11.3294
両側	-11.3294
見られた	-11.3295
メンバーが	-11.3297
を歴任した	-11.3298
も可能	-11.3299
母は	-11.3299
露出	-11.33
俣	-11.33
を連れて	-11.33
オープンした	-11.3301
最終戦	-11.3301
がなされている	-11.3305
▁本作の	-11.3307
▁当時は	-11.3308
▁1925	-11.3309
明かし	-11.3309
行なわれた	-11.331
もう一つ	-11.331
囲碁	-11.3311
武帝	-11.3312
に耐え	-11.3312
新興	-11.3312
メートルの	-11.3312
哀	-11.3312
といって	-11.3313
客室	-11.3314
悔	-11.3317
も同様	-11.3318
プト	-11.3319
建て	-11.3319
子爵	-11.3319
]]	-11.332
様々	-11.332
、1942	-11.3321
その間	-11.3322
例である	-11.3322
[[	-11.3323
blu	-11.3324
ani	-11.3324
間接	-11.3324
cre	-11.3325
ネク	-11.3327
▁inc	-11.3327
飼	-11.3327
演じる	-11.3328
log	-11.3328
支持者	-11.3329
首脳	-11.333
環状	-11.3331
over	-11.3331
が無く	-11.3332
決意	-11.3333
は以下の通りである	-11.3333
定められ	-11.3333
に任じられ	-11.3335
ハナ	-11.3335
アント	-11.3338
溜	-11.3338
カーン	-11.3338
筋肉	-11.3339
ときには	-11.3339
三条	-11.3343
パーティ	-11.3343
月の第	-11.3343
フロリダ	-11.3344
勝利した	-11.3345
を踏まえ	-11.3346
最後は	-11.3347
放射線	-11.3347
三人	-11.3348
歩道	-11.3348
ブルック	-11.3349
入った	-11.3349
缶	-11.3351
貧困	-11.3351
設立され	-11.3351
を引き起こす	-11.3351
夫は	-11.3351
と考えていた	-11.3351
を結び	-11.3351
沈没	-11.3353
政界	-11.3354
を認める	-11.3355
急遽	-11.3355
孤立	-11.3356
アルト	-11.3357
を発見し	-11.3358
割合	-11.3359
決断	-11.3359
オファー	-11.336
シベリア	-11.3361
ワイルド	-11.3362
モジュール	-11.3363
部隊が	-11.3363
隊が	-11.3364
type	-11.3364
アミ	-11.3365
間違い	-11.3366
知らせ	-11.3366
構	-11.3366
悲劇	-11.3369
書く	-11.337
の演奏	-11.337
を聞き	-11.337
侵害	-11.337
1879	-11.3371
はそのまま	-11.3372
松井	-11.3374
部で	-11.3376
リブ	-11.3377
ちょうど	-11.3377
クラン	-11.3378
さを	-11.3379
ハードウェア	-11.3381
問題を	-11.3381
オフに	-11.3382
破産	-11.3382
ッシング	-11.3384
トロント	-11.3387
ナール	-11.3387
二十	-11.3388
鞭	-11.3388
有数の	-11.3391
嫌い	-11.3391
1881	-11.3393
小規模	-11.3393
="	-11.3393
ラーズ	-11.3396
に任じられた	-11.3398
ということで	-11.34
ことがあり	-11.34
プロレスラー	-11.3401
多くは	-11.3401
斬	-11.3401
jst	-11.3402
ノキ	-11.3402
挙げられ	-11.3405
のとき	-11.3409
前日	-11.341
に代わり	-11.3411
と信じ	-11.3411
年半	-11.3411
デュー	-11.3412
ハリス	-11.3413
▁通称は	-11.3413
row	-11.3414
に任命され	-11.3416
学校で	-11.3416
獲得した	-11.3417
へ移籍した	-11.3418
リンカーン	-11.3418
動く	-11.3419
現職	-11.3419
を参照のこと	-11.3422
を走る	-11.3423
信頼性	-11.3426
を導入し	-11.3426
と合併し	-11.3427
覧	-11.3427
あって	-11.3428
らせる	-11.3428
崖	-11.3429
豊富な	-11.3432
マケドニア	-11.3432
日本政府	-11.3433
与党	-11.3433
can	-11.3434
番艦	-11.3434
衡	-11.3435
区間は	-11.3437
灘	-11.3438
一日	-11.3438
表す	-11.3438
原稿	-11.344
ö	-11.344
彰	-11.3441
を与えられた	-11.3441
開き	-11.3441
笑い	-11.3443
ギャラリー	-11.3443
販売された	-11.3445
停車する	-11.3446
スピン	-11.3446
の共同	-11.3448
てつ	-11.3451
スペクトル	-11.3451
問題が	-11.3453
させられた	-11.3454
グラー	-11.3454
▁これまで	-11.3456
グマ	-11.3457
が放送された	-11.3458
を手に入れ	-11.3458
設けられ	-11.346
の主	-11.3461
復旧	-11.3461
英語で	-11.3462
light	-11.3463
が現れる	-11.3463
現存	-11.3464
宜	-11.3465
100%	-11.3466
太夫	-11.3466
を維持する	-11.3467
人物である	-11.3467
反論	-11.3468
に触れ	-11.3468
ジロ	-11.3468
選ばれ	-11.3469
オリコン	-11.3469
バージニア州	-11.3471
同市	-11.3472
dt	-11.3473
▁パ	-11.3473
ニル	-11.3475
疎	-11.3475
と思った	-11.3475
側近	-11.3476
トリック	-11.3476
ウルフ	-11.3479
を知った	-11.3479
城に	-11.3479
魔女	-11.3481
換え	-11.3482
▁清	-11.3483
が用意され	-11.3483
ロンドンの	-11.3485
たことで	-11.3486
江戸時代の	-11.3486
▁第一次世界大戦	-11.3487
の治世	-11.3488
▁慶長	-11.3489
徳川家康	-11.3489
▁続いて	-11.3491
へ移	-11.3492
グッズ	-11.3492
左側	-11.3493
▁ch	-11.3493
ボイス	-11.3493
が流れ	-11.3493
住友	-11.3494
渡す	-11.3496
というのは	-11.3497
パロディ	-11.3497
各地に	-11.3498
受容体	-11.3498
逮捕され	-11.3501
に当たって	-11.3502
を相手に	-11.3502
最高の	-11.3503
ホイ	-11.3503
上がって	-11.3504
重い	-11.3504
惨	-11.3504
推奨	-11.3504
販売する	-11.3505
入門	-11.3505
動脈	-11.3507
ラヴ	-11.3507
▁これによって	-11.3509
悠	-11.3509
アルミ	-11.3513
を残している	-11.3513
鉄道が	-11.3515
ウォン	-11.3516
の中の	-11.3516
一貫して	-11.3518
dream	-11.3518
外交官	-11.3519
に続き	-11.352
集英社	-11.352
ドコモ	-11.3521
ランダム	-11.3524
剥	-11.3524
エントリー	-11.3529
1800	-11.3529
▁もっとも	-11.353
の一つで	-11.353
後者は	-11.3531
コラム	-11.3533
絵本	-11.3533
▁by	-11.3534
多少	-11.3535
アイス	-11.3535
伝道	-11.3537
を聞いた	-11.3538
の小説	-11.3538
に出走	-11.3539
媒体	-11.3542
神社の	-11.3542
行方不明	-11.3542
共産主義	-11.3542
科学的	-11.3543
は完全に	-11.3546
大統領選挙	-11.3546
川水系	-11.3548
ズー	-11.3548
シンガーソングライター	-11.3548
コンスタン	-11.3549
全世界	-11.3549
blue	-11.3549
ここから	-11.3549
作成した	-11.355
懲役	-11.3551
ks	-11.3551
を名乗る	-11.3553
form	-11.3553
設定された	-11.3554
戦った	-11.3554
異例	-11.3554
を起用	-11.3554
隈	-11.3559
開店	-11.3559
上院議員	-11.356
を卒業し	-11.356
起工	-11.3562
暮らす	-11.3564
ジェリー	-11.3564
後輩	-11.3566
拒絶	-11.3566
アパート	-11.3567
の準備	-11.3567
作目の	-11.3569
者数	-11.3569
杜	-11.357
を避けるため	-11.3572
にある公立小学校	-11.3574
御所	-11.3575
醸造	-11.3575
揚げ	-11.3576
1.2	-11.3576
オブジェクト	-11.3577
この頃	-11.3577
存在している	-11.3578
ピース	-11.3579
ッソ	-11.3579
阻害	-11.358
が廃止され	-11.358
をめぐる	-11.3581
任意	-11.3581
持続	-11.3583
それらは	-11.3584
を助け	-11.3584
法務	-11.3584
分野で	-11.3586
お互い	-11.3587
か国	-11.3588
中国人	-11.359
生じた	-11.3591
ara	-11.3591
住人	-11.3592
いっ	-11.3592
マニア	-11.3592
▁1923	-11.3593
▁元々は	-11.3594
属の	-11.3594
アーチ	-11.3595
遇	-11.3595
ズが	-11.3595
危険性	-11.3597
安田	-11.3598
ste	-11.3598
連敗	-11.3601
gb	-11.3601
ホッ	-11.3604
par	-11.3604
オートバイ	-11.3605
大津	-11.3606
ャ	-11.3607
毎日放送	-11.3609
クション	-11.3609
稚	-11.3609
もはや	-11.361
から成る	-11.3611
が起きた	-11.3612
に加わった	-11.3613
起き	-11.3614
復讐	-11.3614
エンジニア	-11.3615
古くは	-11.3615
が同じ	-11.3616
と同等	-11.3616
ev	-11.3617
墜落	-11.3618
学んだ	-11.3618
@	-11.3618
と呼んだ	-11.3618
藻	-11.3618
利用可能	-11.3619
ゆえに	-11.362
強豪	-11.362
パール	-11.3621
直ちに	-11.3623
飛行隊	-11.3623
っていく	-11.3623
収容所	-11.3623
ことができず	-11.3623
キエフ	-11.3624
としての活動	-11.3624
鳥羽	-11.3628
side	-11.3628
火星	-11.3629
に収録された	-11.3629
延び	-11.3629
牝馬	-11.3629
磐	-11.3629
色彩	-11.3632
式典	-11.3634
アレクサンドル	-11.3635
とする説	-11.3636
日放送分	-11.3639
となったため	-11.3639
東区	-11.364
狩り	-11.3641
掌	-11.3641
に転じた	-11.3643
憂	-11.3644
豚	-11.3645
1874	-11.3645
つとめ	-11.3645
万年前	-11.3645
を失う	-11.3648
▁ある日	-11.3648
ライス	-11.3648
入り口	-11.365
に指定され	-11.365
骨折	-11.3652
▁pe	-11.3656
戦争で	-11.3656
fs	-11.3657
先住民	-11.3658
描き	-11.3659
弁護	-11.3659
建造された	-11.3659
を上回る	-11.3659
エクスプレス	-11.3662
位を獲得	-11.3665
騎士団	-11.3666
窮	-11.3666
どのように	-11.3667
嘆	-11.3668
検事	-11.3668
スタートした	-11.3668
は旧	-11.3669
を挙げている	-11.3669
していたこと	-11.367
ダグラス	-11.3674
メリット	-11.3674
nes	-11.3675
船橋	-11.3675
の時点で	-11.3675
pho	-11.3675
名鉄	-11.3675
trans	-11.3676
最長	-11.3676
残っていた	-11.3678
する方法	-11.3678
を覚え	-11.3678
▁1918	-11.3679
手前	-11.3679
に見える	-11.368
など様々な	-11.368
トリノ	-11.3683
ゴリ	-11.3686
フェラーリ	-11.3688
で活躍した	-11.3689
幼少期	-11.3689
伝記	-11.369
フォーム	-11.369
暁	-11.369
大塚	-11.3691
low	-11.3692
ブライ	-11.3693
内務省	-11.3695
エンターテインメント	-11.3697
以	-11.3697
の影響を受け	-11.3698
チェロ	-11.3698
婚約	-11.3699
を奪い	-11.3699
青い	-11.3699
やってきた	-11.37
前者	-11.37
働いて	-11.3701
年前に	-11.3705
月以降	-11.3705
連続で	-11.3706
はしばしば	-11.3707
ダート	-11.3709
1875	-11.3709
の妹	-11.371
ハミルトン	-11.371
ところに	-11.371
添え	-11.3712
との契約	-11.3713
の撮影	-11.3713
▁それまで	-11.3713
申し出	-11.3714
を全て	-11.3714
ポロ	-11.3716
問題は	-11.3717
音楽家	-11.3717
解散した	-11.3718
ギャグ	-11.3718
に多く	-11.3719
アップル	-11.3723
所管	-11.3724
に接する	-11.3724
チーフ	-11.3725
交響曲	-11.3725
始動	-11.3726
活動は	-11.3726
mbs	-11.3726
何度か	-11.3728
ラール	-11.373
麺	-11.373
特有の	-11.3731
に置かれた	-11.3732
が成立する	-11.3734
ッサー	-11.3735
十一	-11.3736
釈放	-11.3737
卒業生	-11.3737
ない場合	-11.3739
-12	-11.374
の形状	-11.3741
大内	-11.3742
フランソワ	-11.3745
ことはなかった	-11.3746
同型	-11.3746
励	-11.3747
ナトリウム	-11.3748
バスク	-11.3748
危険な	-11.3751
ターゲット	-11.3752
背中	-11.3755
年以来	-11.3756
試合に出場	-11.3756
出現する	-11.3757
当番組	-11.3758
否	-11.3758
田園	-11.3758
ごとの	-11.3759
造船	-11.376
コーラス	-11.376
想像	-11.376
計測	-11.3762
艦船	-11.3762
認められた	-11.3763
ight	-11.3764
私の	-11.3766
祖母	-11.3766
に使用される	-11.3767
臼	-11.3768
計画が	-11.3769
ジョセフ	-11.3769
に進む	-11.3769
去る	-11.377
わけではなく	-11.377
を攻め	-11.3771
セールス	-11.3771
ung	-11.3771
イギリス海軍	-11.3771
1933	-11.3773
の弟子	-11.3773
フェー	-11.3773
高麗	-11.3774
いずれの	-11.3777
線の駅	-11.3778
サロン	-11.3781
cer	-11.3782
に際し	-11.3782
容器	-11.3783
なみ	-11.3783
として生まれた	-11.3784
の保護	-11.3784
心配	-11.3784
新生	-11.3784
式で	-11.3785
おおむね	-11.3785
ルートヴィヒ	-11.3785
の一員として	-11.3786
変遷	-11.3786
殺人事件	-11.3787
各国の	-11.3787
ナイター	-11.3789
適切	-11.379
と主張している	-11.379
話す	-11.3792
シャツ	-11.3793
拡大した	-11.3794
構内	-11.3796
播磨	-11.3796
▁加えて	-11.3799
したことから	-11.3799
詳細な	-11.3801
従軍	-11.3802
容易	-11.3802
高かった	-11.3803
けど	-11.3803
クサ	-11.3803
イタリア語	-11.3804
トライ	-11.3806
ワーナー	-11.3807
ml	-11.3809
蓄積	-11.381
大幅な	-11.381
大谷	-11.3812
じゅん	-11.3812
ケネディ	-11.3812
ジェフ	-11.3813
国語	-11.3816
重要である	-11.3818
年末に	-11.3819
断層	-11.382
写像	-11.3822
改称	-11.3823
▁のちに	-11.3823
棋	-11.3824
文法	-11.3825
ミドル	-11.3825
利用する	-11.3827
ture	-11.3828
7000	-11.3829
シェー	-11.383
が登場し	-11.383
遺構	-11.383
ゲスト出演	-11.3831
川越	-11.3832
だけである	-11.3835
ヒューストン	-11.3837
了	-11.3837
致	-11.3838
代謝	-11.3838
売買	-11.3839
劇中	-11.3839
につれて	-11.3841
設置され	-11.3841
らに	-11.3842
の強化	-11.3843
をあげた	-11.3843
必	-11.3844
を命じ	-11.3846
発見した	-11.3847
鉛	-11.3847
せよ	-11.3848
の花	-11.385
公的	-11.385
食堂	-11.385
、1920	-11.385
国内外	-11.3851
援軍	-11.3851
菊池	-11.3852
化されている	-11.3852
の製作	-11.3853
などにも	-11.3853
凝	-11.3856
を開いた	-11.3857
特攻	-11.3858
クシ	-11.3859
自らが	-11.386
付けられ	-11.3861
現れる	-11.3861
デッキ	-11.3862
さく	-11.3862
▁一部の	-11.3862
砂糖	-11.3862
電動	-11.3862
景気	-11.3864
ref	-11.3864
を防ぐ	-11.3865
アサ	-11.3866
出場権	-11.387
を強く	-11.387
奪還	-11.387
合体	-11.3871
太子	-11.3871
十三	-11.3871
の管轄	-11.3874
目立つ	-11.3876
▁1926	-11.3877
▁同日	-11.3877
のいずれか	-11.3877
浴	-11.3877
思考	-11.3878
を取って	-11.388
ダール	-11.388
とのこと	-11.3882
本人は	-11.3882
旭川	-11.3883
陰謀	-11.3884
せつ	-11.3884
を食べる	-11.3885
に陥った	-11.3885
込まれる	-11.3887
生前	-11.3888
アントニオ	-11.3888
胴	-11.3889
線形	-11.389
以外で	-11.3891
値は	-11.3892
を中心として	-11.3895
リップ	-11.3896
に基づいた	-11.3897
総称	-11.3898
サンデー	-11.3899
クン	-11.39
連載された	-11.3902
縫	-11.3904
生きる	-11.3905
として初めて	-11.3906
縛	-11.3906
階層	-11.3906
結婚式	-11.3906
1934	-11.3908
叩き	-11.3909
アト	-11.3909
津市	-11.3911
に就いた	-11.3911
マイン	-11.3912
の写真	-11.3914
題材	-11.3914
が与えられ	-11.3916
フロリダ州	-11.3916
ジェル	-11.3916
郡山	-11.3917
▁or	-11.3918
hr	-11.3918
盲	-11.3919
くじ	-11.392
サッカーリーグ	-11.3922
形式の	-11.3924
転用	-11.3925
近郊の	-11.3925
紙幣	-11.3925
製薬	-11.3926
1877	-11.3927
決定した	-11.3927
地として	-11.3927
}	-11.3928
本数	-11.3929
のあった	-11.3929
亡	-11.393
小路	-11.393
の著書	-11.3931
に見	-11.3931
が形成され	-11.3932
ミッド	-11.3932
幾つかの	-11.3933
ホリ	-11.3933
gk	-11.3936
エッセイ	-11.3936
が設けられている	-11.3939
の物語	-11.3939
を巡る	-11.394
アルプス	-11.394
と称した	-11.394
を搭載する	-11.3941
155	-11.3941
トは	-11.3941
だったという	-11.3941
とく	-11.3941
嫡男	-11.3941
vel	-11.3943
情報番組	-11.3943
全土	-11.3944
明石	-11.3945
ドキュメンタリー	-11.3945
ムービー	-11.3945
海兵隊	-11.3946
の顔	-11.3946
マーケティング	-11.3947
配属	-11.3947
qu	-11.3947
1883	-11.3948
馬車	-11.3949
ning	-11.3949
自作	-11.395
1864	-11.395
いか	-11.395
選手団	-11.3951
が実現	-11.3951
pd	-11.3951
国際映画祭	-11.3951
この番組	-11.3953
▁1919	-11.3953
競輪	-11.3956
コミ	-11.3956
進んだ	-11.3958
求め	-11.3959
との戦い	-11.3961
状況を	-11.3962
主席	-11.3964
キャップ	-11.3965
オリジナルの	-11.3965
逸話	-11.3965
で唯一	-11.3966
ヘッセン	-11.3966
常務	-11.3966
優秀な	-11.3968
特別番組	-11.3971
公布	-11.3971
計画を	-11.3971
イギリスで	-11.3972
年代まで	-11.3972
を乗せ	-11.3973
▁そのほか	-11.3974
中京	-11.3975
悩	-11.3976
徴収	-11.3977
kb	-11.3979
を提供している	-11.3979
▁通称	-11.3979
の要請	-11.398
解明	-11.398
挨拶	-11.398
も同じ	-11.3981
タイミング	-11.3981
が実施された	-11.3981
数少ない	-11.3981
に用いる	-11.3982
シマ	-11.3983
▁初期の	-11.3984
するようになり	-11.3984
▁ロシア	-11.3985
に従う	-11.3986
ショッピングセンター	-11.3986
作る	-11.3987
▁当駅	-11.3987
tan	-11.3989
視察	-11.399
スリ	-11.399
日本の政治家	-11.3991
増設	-11.3991
フォーマット	-11.3992
丹波	-11.3993
をつけて	-11.3993
この試合	-11.3993
▁ゆう	-11.3994
得られた	-11.3994
復活した	-11.3994
通商	-11.3995
神戸市	-11.3995
へ進学	-11.3997
アポロ	-11.3997
を決定する	-11.3999
やかな	-11.4
胎	-11.4
突如	-11.4002
ハンドル	-11.4003
に備え	-11.4004
から離れ	-11.4005
アフ	-11.4005
前後の	-11.4005
スタンダード	-11.4005
の分野で	-11.4006
一般的	-11.4006
高度な	-11.4007
を組み合わせた	-11.4007
位となり	-11.4007
しら	-11.4011
集積	-11.4011
日向	-11.4012
帽子	-11.4012
わせる	-11.4012
ヒロ	-11.4012
正統	-11.4012
左派	-11.4012
悲	-11.4012
アーク	-11.4013
通りに	-11.4014
原田	-11.4015
砲弾	-11.4015
わずかに	-11.4015
人物が	-11.4015
樹立	-11.4016
ローレンス	-11.4016
せない	-11.4017
シラ	-11.4018
在学中に	-11.4018
sco	-11.4019
に応え	-11.4019
つながり	-11.4019
車を	-11.4019
に恵まれ	-11.402
役に	-11.402
監査	-11.4021
ade	-11.4022
を残し	-11.4022
グア	-11.4023
打席	-11.4023
後述する	-11.4023
▁韓国	-11.4024
cia	-11.4025
に応じ	-11.4026
発揮	-11.4027
文化的	-11.4027
言われ	-11.4028
汚	-11.4028
貯	-11.4028
を移し	-11.4029
品川	-11.403
ナビ	-11.403
和歌	-11.403
窒素	-11.4031
に選出され	-11.4033
アトランタ	-11.4034
1862	-11.4035
旅館	-11.4037
に向かい	-11.4037
1932	-11.4037
アピール	-11.4038
正月	-11.4038
は彼の	-11.4039
10%	-11.4039
本州	-11.4039
夫が	-11.4039
の減少	-11.404
教育委員会	-11.404
関係の	-11.404
は困難	-11.4042
初回限定盤	-11.4042
テレビ局	-11.4042
自立	-11.4042
中毒	-11.4042
カテゴリー	-11.4043
ナポリ	-11.4044
遭遇	-11.4046
▁po	-11.4047
bit	-11.4048
当選した	-11.4048
豊富	-11.4048
が原因	-11.4051
レバー	-11.4052
感染症	-11.4052
駅名	-11.4052
▁中世	-11.4052
のではないかと	-11.4053
実務	-11.4054
重大な	-11.4054
bar	-11.4055
呼び	-11.4055
キリスト教徒	-11.4057
公開され	-11.4057
は一切	-11.4057
デルタ	-11.4058
ったが	-11.4059
ポスター	-11.406
ホイール	-11.406
フランクフルト	-11.406
-00	-11.406
歳の時	-11.4061
れい	-11.4062
民営化	-11.4062
うら	-11.4064
▁cl	-11.4064
и	-11.4065
sun	-11.4066
bd	-11.407
軍艦	-11.4071
これにより	-11.4071
展示されている	-11.4071
デトロイト	-11.4071
に関する法律	-11.4072
ことが判明	-11.4073
するような	-11.4073
燃え	-11.4073
が建設された	-11.4074
1935	-11.4074
167	-11.4075
てくれた	-11.4075
しまった	-11.4077
ome	-11.4078
惣	-11.4078
に収め	-11.4078
▁本項では	-11.4079
収穫	-11.4081
全曲	-11.4081
に完成した	-11.4082
各々	-11.4082
ヶ谷	-11.4083
上院	-11.4084
名前を	-11.4084
の一部として	-11.4085
の総称	-11.4085
を強め	-11.4085
cha	-11.4087
テオ	-11.4087
戯曲	-11.4089
部隊を	-11.409
が出来	-11.409
語った	-11.4091
生没年不詳	-11.4092
決着	-11.4093
高層	-11.4093
吉川	-11.4093
人質	-11.4095
が一般的	-11.4096
万人の	-11.4096
吐	-11.4097
北アメリカ	-11.4098
超人	-11.4098
空手	-11.4099
木曜	-11.41
引き分け	-11.4101
慣習	-11.4101
が続き	-11.4104
モデルは	-11.4104
が進められ	-11.4104
クラフト	-11.4105
学び	-11.4109
に関連する	-11.4112
顕著	-11.4113
好調	-11.4113
日本国	-11.4114
チック	-11.4114
来て	-11.4114
に従事した	-11.4114
慈	-11.4115
がれ	-11.4116
方を	-11.4117
デール	-11.4117
右手	-11.4118
予定であったが	-11.4119
朝鮮人	-11.412
意義	-11.4122
を失って	-11.4123
名声	-11.4124
藤井	-11.4124
を組んで	-11.4126
4,000	-11.4127
ことが多かった	-11.4128
が必要となる	-11.4128
は本作	-11.4129
自分で	-11.4131
を越える	-11.4133
が起き	-11.4134
オリックス	-11.4135
安芸	-11.4135
ゆく	-11.4138
わり	-11.4138
王室	-11.4138
付けられている	-11.4139
▁シーズン	-11.4139
幾何学	-11.414
毅	-11.4142
をかけた	-11.4146
上から	-11.4147
ルーキー	-11.4147
平安	-11.4147
リアス	-11.4148
og	-11.4149
’	-11.4149
見られない	-11.415
フォックス	-11.4152
稽古	-11.4152
保障	-11.4153
仲介	-11.4153
武力	-11.4153
勝ちを収め	-11.4153
女の子	-11.4154
想い	-11.4155
果たし	-11.4155
演奏会	-11.4155
関係を	-11.4157
社会人	-11.4157
!!』	-11.4159
運ばれ	-11.4159
可能性が	-11.4161
が建設され	-11.4161
ていたこと	-11.4161
ムラ	-11.4161
代当主	-11.4161
生産された	-11.4162
に編入	-11.4162
ライフル	-11.4163
現金	-11.4165
長を務めた	-11.4166
の構成	-11.4167
の呼称	-11.4168
数千	-11.4168
に来た	-11.4168
動物園	-11.4169
蓄	-11.4169
遺伝	-11.4171
代官	-11.4171
ビジョン	-11.4172
コンピューター	-11.4173
フェイス	-11.4174
人間が	-11.4174
割引	-11.4176
を支持する	-11.4179
一時は	-11.418
を必要とする	-11.418
敗で	-11.4181
我が	-11.4181
team	-11.4182
期限付き移籍	-11.4186
は常に	-11.4186
州内	-11.4187
隣の	-11.4187
▁その他の	-11.4188
uk	-11.4188
苑	-11.4189
エンジンの	-11.419
が好き	-11.419
バリエーション	-11.4191
目黒	-11.4191
ランキングで	-11.4192
枕	-11.4193
不利	-11.4194
浅野	-11.4195
を紹介する	-11.4195
ステル	-11.4195
明確に	-11.4196
減少し	-11.4196
製作所	-11.4197
させようと	-11.4197
ow	-11.4198
滞	-11.4199
フランシス	-11.4201
▁ジョン	-11.4202
と言われた	-11.4203
1.6	-11.4204
販売している	-11.4206
が特徴である	-11.4207
アカデミー賞	-11.4208
ルノー	-11.4208
戦目	-11.421
地理学	-11.4211
考察	-11.4214
石垣	-11.4215
が追加された	-11.4216
を加える	-11.4216
を止め	-11.4216
開発した	-11.4217
人であった	-11.4218
nor	-11.4219
プラスチック	-11.4219
フランス人	-11.422
ミズ	-11.4221
に分割	-11.4221
改札口	-11.4222
考えられる	-11.4224
柴田	-11.4225
が与えられた	-11.4225
するようになる	-11.4226
安倍	-11.4227
世界中の	-11.4228
デッド	-11.423
本格	-11.4232
地上波	-11.4232
渋滞	-11.4233
十八	-11.4234
国体	-11.4234
前後に	-11.4235
あお	-11.4235
アラビア語	-11.4236
送った	-11.4236
横山	-11.4238
飲	-11.4238
と評している	-11.4239
敵の	-11.4239
予定だった	-11.4241
タマ	-11.4241
を買い	-11.4243
であったこと	-11.4243
▁金	-11.4243
記念碑	-11.4244
尋ね	-11.4245
キャラクターの	-11.4245
家畜	-11.4246
ess	-11.4247
入国	-11.4247
内部に	-11.4248
が立ち	-11.4248
のタイトルで	-11.4249
をいう	-11.4249
▁駅番号は	-11.4249
の間には	-11.425
等級	-11.4251
を命じた	-11.4252
短期	-11.4256
に終わる	-11.4256
トミー	-11.4256
小型の	-11.4257
教官	-11.4257
int	-11.4257
テッド	-11.4259
駿河	-11.426
で発生した	-11.4261
4.5	-11.4261
三好	-11.4261
ish	-11.4266
が採用された	-11.4266
みん	-11.4268
なき	-11.4268
レナ	-11.4268
ザイ	-11.4272
の無い	-11.4275
体力	-11.4276
ろく	-11.4276
パレスチナ	-11.4277
地理	-11.4278
という説	-11.428
完了した	-11.4281
棺	-11.4282
江戸幕府	-11.4282
酷	-11.4282
転向	-11.4282
に出演し	-11.4283
合流する	-11.4283
蹴	-11.4285
在日	-11.4285
全体が	-11.4286
日本の俳優	-11.4286
キラ	-11.4286
腫瘍	-11.4286
後援	-11.4287
歳以下	-11.4287
日活	-11.4288
▁そのような	-11.4288
化して	-11.4288
陣地	-11.429
アジ	-11.4292
アメ	-11.4293
賠償	-11.4293
進水	-11.4294
show	-11.4295
ドス	-11.4295
学院大学	-11.4295
歓	-11.4296
首を	-11.4297
管内	-11.4298
原始	-11.4298
東大	-11.4299
アニメ版	-11.4299
ソリ	-11.4302
ガソリン	-11.4303
流用	-11.4304
累計	-11.4306
閉じ	-11.4306
ばし	-11.4307
偉大な	-11.4307
合わせる	-11.4309
ug	-11.4309
島で	-11.431
black	-11.431
変え	-11.431
出入り	-11.4311
盾	-11.4312
泡	-11.4312
位だった	-11.4313
東京市	-11.4315
バレ	-11.4315
▁別名	-11.4317
割れ	-11.4317
の出演	-11.4318
ニク	-11.432
十郎	-11.432
now	-11.4321
適合	-11.4321
近接	-11.4322
ハンス	-11.4322
確認できる	-11.4322
スケジュール	-11.4324
領有	-11.4324
しめ	-11.4324
ノット	-11.4325
が原因で	-11.4328
監督に就任	-11.4329
出向	-11.433
の街	-11.4331
▁主人公	-11.4331
量を	-11.4331
クリーム	-11.4332
熊谷	-11.4332
東京都立	-11.4333
尖	-11.4333
の独立	-11.4334
基部	-11.4335
組まれ	-11.4338
ウィーク	-11.4339
廟	-11.434
アルバ	-11.4341
東西に	-11.4342
高野	-11.4343
去り	-11.4344
ペルシア	-11.4345
まっていた	-11.4345
を支持し	-11.4347
股	-11.4348
体が	-11.4348
採取	-11.4349
1200	-11.435
を目的に	-11.4351
ようなもの	-11.4351
▁世界	-11.4352
ホセ	-11.4352
▁1922	-11.4353
金融機関	-11.4353
曲目	-11.4354
に渡る	-11.4356
石田	-11.4356
í	-11.4357
ura	-11.4357
双子	-11.4357
開発され	-11.4357
▁引退後は	-11.4358
通し	-11.436
南区	-11.436
コッ	-11.4361
凡	-11.4362
対象となる	-11.4363
昼間	-11.4363
犯行	-11.4365
小笠原	-11.4365
を支援する	-11.4365
の治療	-11.4366
戻し	-11.4367
の多く	-11.4368
阿波	-11.4369
薩摩	-11.4369
高等学校を経て	-11.4373
駅周辺	-11.4375
を使用	-11.4376
監修	-11.4376
に留まった	-11.4378
を装備し	-11.438
を担当し	-11.438
免除	-11.4381
▁この際	-11.4383
アルバイト	-11.4385
親族	-11.4386
日本の実業家	-11.4386
パレード	-11.4387
イラストレーター	-11.4387
メカ	-11.439
追撃	-11.4391
決まり	-11.4391
を開き	-11.4391
マジ	-11.4391
を構え	-11.4391
cap	-11.4391
power	-11.4392
末に	-11.4393
1931	-11.4393
大王	-11.4394
西村	-11.4394
月上旬	-11.4394
▁尚	-11.4395
デザインは	-11.4396
八王子	-11.4396
学区は以下の通りとなる	-11.4396
借金	-11.4396
競技場	-11.4398
紀伊	-11.4398
一等	-11.4398
java	-11.4398
豊橋	-11.4398
モラ	-11.4399
以降も	-11.44
hol	-11.4402
述べた	-11.4402
らく	-11.4403
果て	-11.4403
1863	-11.4403
del	-11.4404
が整備され	-11.4404
特権	-11.4407
協会の	-11.4409
種は	-11.4409
リョ	-11.4411
日付の	-11.4412
通知	-11.4413
絹	-11.4413
働く	-11.4413
ban	-11.4415
再発	-11.4415
ホス	-11.4419
を加えて	-11.442
村山	-11.4422
っぽ	-11.4423
どり	-11.4424
辞典	-11.4424
飲食店	-11.4425
魚類	-11.4425
聖職者	-11.4427
神奈川県横浜市	-11.4428
川流域	-11.443
わし	-11.4431
が発足	-11.4432
を巻き	-11.4434
−	-11.4434
合金	-11.4436
まき	-11.4437
同誌	-11.4437
を変える	-11.4437
位置に	-11.4439
支配下	-11.444
造営	-11.444
出演する	-11.444
腐	-11.4441
先祖	-11.4441
宴	-11.4441
耶	-11.4442
0%	-11.4443
王は	-11.4445
クハ	-11.4446
縄	-11.4448
乗り換え	-11.445
が使われる	-11.4451
後日	-11.4451
ッピング	-11.4453
されるなど	-11.4453
に似ている	-11.4455
あか	-11.4455
エコ	-11.4455
暴動	-11.4456
秩父	-11.4456
半数	-11.4457
写真家	-11.4457
例は	-11.4457
を建設する	-11.4459
ンゲン	-11.4459
hen	-11.446
川村	-11.4461
越し	-11.4461
付きの	-11.4462
単位で	-11.4462
ビートルズ	-11.4463
1867	-11.4467
ことが明らか	-11.4467
挿絵	-11.4467
アメリカ陸軍	-11.447
かぶ	-11.447
ov	-11.4472
控訴	-11.4472
▁si	-11.4473
ヘッドコーチ	-11.4474
▁両	-11.4474
ä	-11.4475
位置付け	-11.4478
住民は	-11.4478
につながる	-11.4478
踏	-11.4479
ビルボード	-11.448
ムーア	-11.4481
ムル	-11.4481
アシュ	-11.4482
取り扱い	-11.4483
に移し	-11.4484
入りした	-11.4485
ネズミ	-11.4487
のほうが	-11.4488
させるため	-11.4488
寛文	-11.4488
足利義	-11.449
ヶ丘	-11.4491
ニウム	-11.4492
gra	-11.4493
線型	-11.4493
中尉	-11.4493
氷河	-11.4494
属性	-11.4494
アルファベット	-11.4496
1928	-11.4497
刻まれ	-11.4499
を対象とした	-11.45
を取得した	-11.4501
ple	-11.4502
十六	-11.4503
婚姻	-11.4503
旧姓	-11.4504
ニーズ	-11.4508
暑	-11.4508
コモ	-11.451
ブール	-11.451
の合計	-11.4511
申し	-11.4511
で死去	-11.4512
人目の	-11.4513
一貫	-11.4514
ファイア	-11.4514
調教師	-11.4514
カウント	-11.4515
地盤	-11.4515
カタルーニャ	-11.4515
ったもの	-11.4516
代将軍	-11.4516
述べ	-11.4518
広範囲	-11.452
除外	-11.452
に隣接する	-11.452
に応じた	-11.4521
に属していた	-11.4521
▁1921	-11.4524
は極めて	-11.4525
牧野	-11.4525
tin	-11.4527
バッテリー	-11.4528
san	-11.4528
討	-11.4529
商船	-11.453
捕らえ	-11.4531
内は	-11.4532
危惧	-11.4532
コリン	-11.4534
を要請	-11.4535
必要があった	-11.4535
財団法人	-11.4536
聡	-11.4537
体内	-11.4537
wwe	-11.4538
を担当している	-11.4538
八戸	-11.4538
遡	-11.4539
歳未満	-11.4544
枠で	-11.4546
薫	-11.4546
高齢者	-11.4548
みなみ	-11.4548
内での	-11.4549
ltd	-11.4551
▁!	-11.4551
寅	-11.4551
府中	-11.4552
定義される	-11.4556
芦	-11.4556
が一般的である	-11.4556
放送していた	-11.4557
職を	-11.4559
に在籍	-11.4561
オーディオ	-11.4561
で演奏	-11.4563
ミステリー	-11.4566
嘉永	-11.4568
1-2	-11.4568
同局	-11.4568
旋回	-11.4569
高額	-11.457
博覧会	-11.4571
混ぜ	-11.4571
として活躍した	-11.4571
の観点から	-11.4571
鉢	-11.4573
断絶	-11.4574
座標	-11.4575
が登場した	-11.4575
ところを	-11.4575
シリーズでは	-11.4577
ami	-11.4577
▁もし	-11.4578
の子会社	-11.4578
▁米国	-11.4578
賞賛	-11.4578
皿	-11.458
小田	-11.458
放置	-11.4582
島式ホーム	-11.4585
▁ハ	-11.4586
nasa	-11.4586
影響を与え	-11.4586
樹木	-11.4587
北端	-11.4587
▁ri	-11.4588
ポケット	-11.4588
見事	-11.4589
改定	-11.4591
讃	-11.4592
マンハッタン	-11.4592
に仕えた	-11.4592
key	-11.4592
じた	-11.4593
ユーザ	-11.4593
立川	-11.4594
クィ	-11.4594
月時点で	-11.4594
抄	-11.4594
似ている	-11.4595
南北戦争	-11.4595
藤沢	-11.4596
水源	-11.4597
を直接	-11.4599
貸し	-11.4599
名人	-11.4602
も多かった	-11.4603
md	-11.4603
上限	-11.4605
遂行	-11.4607
、1939	-11.4607
プラハ	-11.461
幡	-11.461
ヴィッ	-11.461
シーズンから	-11.4611
フォーミュラ	-11.4611
正しく	-11.4612
掴	-11.4614
とよ	-11.4615
就役	-11.4615
行える	-11.4616
1,2	-11.4616
一面	-11.4617
べる	-11.4618
を進めた	-11.4618
を採用する	-11.4619
▁1917	-11.462
多用	-11.4621
市内に	-11.4622
-21	-11.4623
虹	-11.4623
男が	-11.4625
国会議員	-11.4625
蕭	-11.4626
を主張し	-11.4626
出来なかった	-11.4626
分泌	-11.4627
let	-11.4627
回る	-11.4627
漆	-11.4628
対岸	-11.463
jra	-11.463
多くの場合	-11.463
を選ぶ	-11.463
北極	-11.463
甚	-11.4631
が進む	-11.4632
年金	-11.4632
まとめて	-11.4634
欧州連合	-11.4634
シンガー	-11.4635
らを	-11.4635
出家	-11.4635
活躍し	-11.4636
試合に出場した	-11.464
が完成した	-11.4641
排水	-11.4641
バージニア	-11.4642
こととなり	-11.4642
であったという	-11.4643
ヤマハ	-11.4643
公務員	-11.4646
かえ	-11.4647
威力	-11.4648
迎撃	-11.4648
シェン	-11.4649
全集	-11.4649
▁1914	-11.465
僧侶	-11.465
重点	-11.465
を取り入れ	-11.4651
することがある	-11.4654
年代半ば	-11.4654
_4	-11.4654
紹介された	-11.4655
メンバーの	-11.4656
木製	-11.4656
指標	-11.4656
機動戦士ガンダム	-11.4657
一次	-11.4658
テア	-11.4659
ジャイ	-11.466
などによって	-11.4661
バタ	-11.4661
拍	-11.4663
鑑定	-11.4664
不動	-11.4665
水野	-11.4668
改組	-11.4668
リーグ優勝	-11.4669
攻撃を	-11.467
能力を	-11.467
▁|	-11.467
1929	-11.4671
高速バス	-11.4673
つけられた	-11.4674
を送る	-11.4674
獅子	-11.4675
年度に	-11.4676
として知られ	-11.4676
1,0	-11.4677
南端	-11.4678
じゃない	-11.4678
儒	-11.4679
渕	-11.4682
を記念して	-11.4682
条第	-11.4682
取れ	-11.4683
tsu	-11.4684
カルト	-11.4685
を通過する	-11.4685
大砲	-11.4686
認められる	-11.4688
朴	-11.4689
オウ	-11.4689
却	-11.469
rb	-11.469
伝え	-11.4691
rus	-11.4691
没収	-11.4693
行なわれ	-11.4694
入会	-11.4694
先代	-11.4695
楽天	-11.4696
野外	-11.4696
ブロードウェイ	-11.4697
喜多	-11.4699
換	-11.47
シール	-11.4702
セルフ	-11.4704
州都	-11.4705
翻	-11.4705
口に	-11.4707
潔	-11.4708
ことはなく	-11.4711
書かれ	-11.4711
遺族	-11.4712
は以下のとおり	-11.4714
サンディエゴ	-11.4716
▁sh	-11.4718
連邦政府	-11.4718
山町	-11.4719
天才	-11.472
と主張し	-11.4722
ライアン	-11.4723
不安定	-11.4723
堰	-11.4723
加えられた	-11.4725
焼失	-11.4725
コリ	-11.4726
に進み	-11.4726
総数	-11.4729
▁アン	-11.4729
を捨て	-11.4729
報告されている	-11.473
始まって	-11.473
趣旨	-11.4731
を手に	-11.4732
将来の	-11.4732
大友	-11.4732
中型	-11.4732
してくる	-11.4733
中央に	-11.4733
組み立て	-11.4734
ホラー	-11.4735
逃走	-11.4735
置換	-11.4736
運送	-11.4737
擁立	-11.4738
漫才	-11.4738
▁au	-11.4739
る形で	-11.4739
発現	-11.4739
、1936	-11.474
プレミア	-11.474
部を	-11.4742
一人で	-11.4742
コーポレーション	-11.4743
ボーイズ	-11.4743
の有無	-11.4743
誘い	-11.4745
郡区	-11.4745
出土	-11.4745
を設置する	-11.4746
小泉	-11.4749
▁fe	-11.4749
に移転した	-11.4749
永久	-11.475
るような	-11.4751
の領域	-11.4751
叫	-11.4751
ホームページ	-11.4752
を買収し	-11.4753
変異	-11.4753
cb	-11.4753
借り	-11.4754
レベルの	-11.4755
ッラ	-11.4755
表題曲	-11.4756
志向	-11.4756
観光地	-11.4756
東端	-11.4757
容疑で	-11.4757
年に設立された	-11.4757
一揆	-11.4757
1861	-11.4758
貼	-11.476
お笑い	-11.4762
フォーラム	-11.4762
水田	-11.4763
条項	-11.4763
入る	-11.4764
兵庫	-11.4766
課税	-11.4768
除く	-11.4768
ダラ	-11.477
これまでに	-11.477
令和元年	-11.4771
麻薬	-11.4771
停	-11.4774
所属する	-11.4774
ロシア帝国	-11.4775
考える	-11.4775
少なかった	-11.4775
菩薩	-11.4777
グリー	-11.4778
であったことから	-11.4778
神道	-11.4779
ロシア連邦	-11.4779
国民の	-11.4779
年代にかけて	-11.478
鎌	-11.4781
の最後の	-11.4782
東山	-11.4782
市議会	-11.4782
津田	-11.4783
ニコラ	-11.4783
kt	-11.4783
上げて	-11.4784
への参加	-11.4784
解説者	-11.4784
多目的	-11.4784
夜の	-11.4785
日本語で	-11.4786
難しく	-11.4787
を上げる	-11.4788
シチリア	-11.4789
岐	-11.4789
氏と	-11.4789
リフト	-11.479
ヨウ	-11.4791
両者の	-11.4792
があれば	-11.4792
ランス	-11.4792
ケープ	-11.4792
た場合	-11.4793
に昇格した	-11.4793
大地	-11.4794
探検	-11.4794
オルガン	-11.4799
を必要とし	-11.48
に所属している	-11.48
賭け	-11.4801
に分類され	-11.4801
招	-11.4802
教諭	-11.4802
示された	-11.4803
宗家	-11.4806
ウラン	-11.4806
定められている	-11.4808
活動を開始	-11.4809
で開催される	-11.4809
ージュ	-11.481
転写	-11.4812
を通って	-11.4812
遠藤	-11.4812
歌謡	-11.4813
駅構内	-11.4813
翌年に	-11.4814
ぎり	-11.4816
噴	-11.4817
宇治	-11.4818
が誕生した	-11.4818
mit	-11.4819
処置	-11.482
に所属した	-11.482
750	-11.482
に昇進	-11.4821
euro	-11.4822
宗教的	-11.4822
bor	-11.4822
書物	-11.4822
が図られ	-11.4823
日からは	-11.4823
が知られている	-11.4825
マーシャル	-11.4826
にしか	-11.4826
に分けられる	-11.4826
リット	-11.4827
tur	-11.4828
負傷した	-11.4829
を収録	-11.4829
インディーズ	-11.4829
すと	-11.483
喜び	-11.483
ていき	-11.483
伝統的に	-11.4831
井戸	-11.4832
ヘッ	-11.4832
みた	-11.4834
メト	-11.4836
たものである	-11.4837
▁ka	-11.4838
和泉	-11.4839
麻雀	-11.4841
大統領は	-11.4842
舞踊	-11.4842
▁初	-11.4845
休養	-11.4845
友達	-11.4845
岡本	-11.4846
ざい	-11.4847
たけし	-11.4849
出血	-11.485
nato	-11.4851
移設	-11.4853
center	-11.4853
研究開発	-11.4854
鉄道は	-11.4854
回し	-11.4855
られなかった	-11.4855
尊敬	-11.4855
モーニング	-11.4855
同大学	-11.4856
最高速度	-11.4857
の初	-11.4857
ツイン	-11.4857
ハロ	-11.4857
に分布する	-11.4858
防空	-11.4858
を読み	-11.4858
がかかる	-11.4859
を育て	-11.4859
社内	-11.486
読書	-11.486
向かい	-11.486
クマ	-11.4861
アレン	-11.4861
支払う	-11.4862
キャッシュ	-11.4863
シュテ	-11.4864
サッカークラブ	-11.4865
ささ	-11.4865
、1937	-11.4868
lc	-11.487
もらい	-11.4871
を完成させ	-11.4872
危	-11.4872
の名は	-11.4873
内閣総理大臣	-11.4873
成熟	-11.4873
州立大学	-11.4873
液晶	-11.4873
にも参加	-11.4874
リフ	-11.4875
本大会	-11.4875
が成立し	-11.4875
翌年には	-11.4876
変わらない	-11.4878
展覧会	-11.4878
年に発表した	-11.4879
国旗	-11.4881
並び	-11.4882
シアトル	-11.4883
ino	-11.4885
西端	-11.4885
抽出	-11.4886
デリー	-11.4887
蝶	-11.4888
執政官	-11.4888
mix	-11.4889
好評	-11.4889
を認めた	-11.4889
ウッ	-11.489
しまい	-11.489
センス	-11.4891
分ける	-11.4891
骨格	-11.4892
京成	-11.4893
王女	-11.4893
sil	-11.4894
リリースした	-11.4894
かなりの	-11.4894
以外では	-11.4895
に属している	-11.4895
ばれ	-11.4895
ツキ	-11.4898
いったん	-11.4899
副社長	-11.4901
トーン	-11.4901
くない	-11.4902
枚目のアルバム	-11.4902
ことを示す	-11.4903
、1938	-11.4904
外れ	-11.4905
慢性	-11.4905
ンダー	-11.4906
ことについて	-11.491
鰭	-11.491
は少なく	-11.491
にとどまった	-11.4911
んです	-11.4912
yl	-11.4912
田辺	-11.4912
桑	-11.4912
オランダの	-11.4912
追悼	-11.4913
番組で	-11.4913
ラインナップ	-11.4913
破損	-11.4914
娯楽	-11.4915
に送り	-11.4915
触媒	-11.4915
レッジ	-11.4916
for	-11.4917
沿	-11.4918
学部教授	-11.4919
▁com	-11.4919
難しい	-11.492
特番	-11.492
東海道	-11.4921
ドナルド	-11.4922
zi	-11.4922
含め	-11.4923
過剰	-11.4923
貌	-11.4924
▁この結果	-11.4924
撃ち	-11.4924
優勝者	-11.4926
を伸ばし	-11.4926
不十分	-11.4927
近年では	-11.4927
ッポ	-11.4927
すり	-11.4928
ブレン	-11.493
ウィング	-11.493
名門	-11.493
ラッセル	-11.4932
住み	-11.4932
出身の元	-11.4933
顔を	-11.4934
ニコライ	-11.4935
の規模	-11.4935
発見され	-11.4936
zu	-11.4938
勾配	-11.4938
ローム	-11.4938
より発売された	-11.4939
ナック	-11.4939
ざん	-11.494
硬貨	-11.4943
他国	-11.4944
極東	-11.4946
が製造	-11.4946
いちらん	-11.4946
替わり	-11.4946
撤回	-11.4946
転落	-11.4948
意向	-11.4949
▁プロ	-11.4951
出会い	-11.4952
狙い	-11.4952
つつあった	-11.4952
を始めとする	-11.4952
投票で	-11.4953
産出	-11.4953
泣	-11.4954
記録されている	-11.4954
の経験	-11.4955
ロワ	-11.4955
が搭載され	-11.4955
車両が	-11.4956
在任	-11.4956
本拠	-11.4956
一種の	-11.4956
元気	-11.4957
共通の	-11.4958
0.2	-11.4959
晶	-11.4959
京都大学	-11.496
レンタル移籍	-11.496
さが	-11.4962
に発生した	-11.4965
ひょう	-11.4965
に合格	-11.4968
立ち上げ	-11.4968
▁ホーム	-11.4969
をめぐって	-11.497
巡回	-11.4971
ベロ	-11.4971
諸侯	-11.4971
植物の	-11.4972
base	-11.4972
ale	-11.4974
で生まれ	-11.4975
の文字	-11.4976
を集めて	-11.4976
ナリ	-11.4976
スイ	-11.4978
役人	-11.4978
ッシ	-11.4979
の中心部	-11.4979
が確認された	-11.4981
令和	-11.4982
本願寺	-11.4983
▁windows	-11.4983
国営	-11.4983
にならない	-11.4983
癒	-11.4983
これ以降	-11.4984
できるようになった	-11.4985
ステレオ	-11.4988
透	-11.4989
痛み	-11.4989
ロードレース	-11.4989
娘の	-11.4991
種族	-11.4991
振り返	-11.4992
一斉	-11.4992
樹脂	-11.4996
伊予	-11.4996
ドラマー	-11.4997
スラヴ	-11.4998
ヤンキース	-11.5003
音楽祭	-11.5003
されることが多い	-11.5004
等しい	-11.5006
日午後	-11.5006
真っ	-11.5007
を設置した	-11.5008
に行き	-11.5008
実用化	-11.5009
内装	-11.501
を行なった	-11.501
捕食	-11.5011
を固め	-11.5011
存在しない	-11.5012
ミックス	-11.5012
フィッシュ	-11.5013
早川	-11.5013
ez	-11.5014
新羅	-11.5016
文学者	-11.5016
シュル	-11.5017
npo	-11.5017
難易度	-11.5018
を投じ	-11.5018
成長した	-11.5021
イヴ	-11.5021
ham	-11.5022
サール	-11.5023
総選挙で	-11.5025
が良い	-11.5025
家庭用	-11.5026
郡にあった村	-11.5026
の一角	-11.5028
▁ra	-11.503
外来	-11.503
することができた	-11.5032
▁it	-11.5032
背負	-11.5032
ロップ	-11.5033
活動家	-11.5033
ace	-11.5037
によるものである	-11.5038
ball	-11.5039
とも呼ばれ	-11.5039
フェス	-11.504
日本初の	-11.504
写真を	-11.5041
を多数	-11.5042
が設けられた	-11.5043
ニッポン放送	-11.5045
アーキテクチャ	-11.5045
造成	-11.5046
アイヌ	-11.5046
があったため	-11.5046
続いていた	-11.5046
の旅	-11.5047
ユリ	-11.5051
を備える	-11.5051
オットー	-11.5051
テレビシリーズ	-11.5051
進撃	-11.5053
冷戦	-11.5054
酒井	-11.5054
イオ	-11.5055
の育成	-11.5057
決まる	-11.5057
無料で	-11.5058
アベニュー	-11.5058
.,	-11.5063
▁【	-11.5063
入賞	-11.5063
カメ	-11.5064
組成	-11.5064
脂肪	-11.5067
在住の	-11.5068
真空	-11.5068
狩	-11.5069
にその	-11.507
騒	-11.507
群の	-11.507
仙台市	-11.5071
▁真	-11.5072
クリーク	-11.5072
本項	-11.5073
慮	-11.5075
初期に	-11.5078
予定されていた	-11.5079
▁school	-11.508
と共同で	-11.508
コーラ	-11.508
大関	-11.5081
1.8	-11.5081
の報告	-11.5081
欧	-11.5082
水面	-11.5083
隙	-11.5084
茅	-11.5086
ストレス	-11.5087
脅	-11.5088
が実施され	-11.5088
ッケ	-11.5088
ツァー	-11.5089
もたらされ	-11.5089
が導入され	-11.5089
ることなく	-11.5091
1866	-11.5092
武家	-11.5093
括弧	-11.5096
たところ	-11.5097
連装	-11.5097
ことに成功した	-11.5099
▁最終	-11.51
の成立	-11.51
窯	-11.5101
こなし	-11.5101
で行われ	-11.5101
研究センター	-11.5102
採用され	-11.5103
福岡市	-11.5103
傾向にある	-11.5103
小沢	-11.5104
ash	-11.5105
を脱	-11.5107
割り当てられ	-11.5108
▁pi	-11.5109
ライブラリ	-11.511
に反対する	-11.5111
その名	-11.5111
停留場	-11.5114
大蔵	-11.5115
大阪府大阪市	-11.5115
ニウス	-11.5115
"、"	-11.5116
用いた	-11.5116
信徒	-11.5118
その際に	-11.5119
歩く	-11.512
1865	-11.5121
厚生労働省	-11.5121
起こした	-11.5123
mv	-11.5125
桓	-11.5126
事業所	-11.5127
を見つけ	-11.5127
宣教師	-11.5128
直営	-11.513
天国	-11.5131
発祥	-11.5131
アルミニウム	-11.5131
ローマ帝国	-11.5132
ンガ	-11.5132
▁all	-11.5133
にかかる	-11.5134
築城	-11.5135
爆破	-11.5136
貴族院	-11.5136
野町	-11.5137
山内	-11.5138
▁逆に	-11.5139
下関	-11.514
ceo	-11.5142
有力な	-11.5142
に強い	-11.5145
に過ぎない	-11.5146
実際	-11.5146
議会は	-11.5147
誘拐	-11.5149
大夫	-11.515
センサー	-11.5152
酒造	-11.5152
ってしまった	-11.5153
キッド	-11.5153
などといった	-11.5154
game	-11.5155
イングランドの	-11.5155
八重	-11.5155
フラッシュ	-11.5155
で死去した	-11.5156
地である	-11.5156
ふる	-11.5156
ログ	-11.5156
リナ	-11.5157
イソ	-11.5158
エアロ	-11.5159
包括	-11.5159
じんじゃ	-11.516
聞こえ	-11.5164
反面	-11.5165
を書く	-11.5165
ブレー	-11.5165
▁ac	-11.5165
内陸	-11.5165
特色	-11.5165
に出て	-11.5166
異性	-11.5166
を提供し	-11.5166
れて	-11.5167
深さ	-11.5168
の危機	-11.5169
使用していた	-11.5169
描く	-11.517
役として	-11.5171
が開かれ	-11.5172
に見舞われ	-11.5172
アビ	-11.5173
うこと	-11.5176
との間の	-11.5177
お前	-11.5179
このアルバム	-11.5179
診療	-11.5179
国際大会	-11.518
虐待	-11.518
ッシャー	-11.518
取り扱う	-11.5181
外に	-11.5181
待機	-11.5181
亜科	-11.5182
公使	-11.5183
に隣接し	-11.5183
放映された	-11.5186
町田	-11.5186
スタイン	-11.5187
集約	-11.5187
マサチューセッツ州	-11.5188
レックス	-11.5188
されることがある	-11.5188
気圧	-11.519
肯定	-11.519
当事者	-11.519
ヴィッチ	-11.5192
▁二	-11.5193
と戦う	-11.5194
爾	-11.5195
大社	-11.5195
四日市	-11.5196
守り	-11.5197
圧倒的	-11.5197
愚	-11.5197
lon	-11.5202
廣	-11.5203
スーツ	-11.5204
ドレ	-11.5205
フロア	-11.5205
と同じように	-11.5205
電磁	-11.5207
予言	-11.5207
本番組	-11.5207
っても	-11.5208
明治維新	-11.5208
スワ	-11.5209
さつ	-11.5209
有人	-11.5211
シリーズは	-11.5211
麻呂	-11.5212
が広く	-11.5214
ダウ	-11.5215
揃え	-11.5215
みたい	-11.5216
シリ	-11.5216
灰色	-11.5217
の半分	-11.5218
上では	-11.5219
片側	-11.522
ライド	-11.5222
マニラ	-11.5222
講習	-11.5224
長期間	-11.5224
に使用された	-11.5224
池袋	-11.5226
種が	-11.5226
歩き	-11.5226
田原	-11.5228
▁1912	-11.5228
50%	-11.5229
屋外	-11.5229
順番	-11.523
スプリング	-11.523
流し	-11.5232
歓迎	-11.5233
105	-11.5233
の性質	-11.5234
基幹	-11.5234
寸	-11.5235
子供の	-11.5235
芸能界	-11.5236
ゴジラ	-11.5236
亡くなる	-11.5236
されたものである	-11.5236
のリリース	-11.5237
コパ	-11.5238
医科大学	-11.5239
出羽	-11.5239
▁100	-11.524
▁""	-11.524
ーヴ	-11.524
都市である	-11.524
~	-11.5241
摂政	-11.5241
郵政	-11.5242
委	-11.5242
に囲まれ	-11.5244
固体	-11.5245
ぞく	-11.5246
退官	-11.5246
りつ	-11.5247
あらかじめ	-11.5249
変更された	-11.5249
あた	-11.525
を訪ね	-11.5251
鉄道路線	-11.5252
ライオンズ	-11.5253
ています	-11.5253
を通り	-11.5253
を導入した	-11.5254
封鎖	-11.5255
突撃	-11.5255
運ぶ	-11.5256
藍	-11.5257
ys	-11.5257
awa	-11.5257
電撃	-11.526
選択肢	-11.5263
に専念	-11.5263
落とす	-11.5263
に変化	-11.5263
▁ja	-11.5263
ペース	-11.5266
胞	-11.5267
赤坂	-11.5267
プライベート	-11.5267
project	-11.5267
を描き	-11.5268
ぼく	-11.5272
産駒	-11.5273
▁よって	-11.5273
急性	-11.5273
0°	-11.5274
ドラー	-11.5274
を受け入れ	-11.5275
を背景に	-11.5275
▁tra	-11.5276
年に発売された	-11.5277
に行われた	-11.5279
整備された	-11.5279
系譜	-11.5279
を思い	-11.528
を支える	-11.528
アルファ	-11.5281
残した	-11.5281
の三男	-11.5282
ビオ	-11.5283
を超えて	-11.5283
ざわ	-11.5284
とも言われる	-11.5284
履	-11.5286
船が	-11.5287
出航	-11.5288
市から	-11.5288
けて	-11.5289
ws	-11.5291
位と	-11.5291
▁血液型	-11.5291
左手	-11.5292
で使用された	-11.5292
破棄	-11.5293
スイスの	-11.5293
に放送された	-11.5293
全体を	-11.5295
サスペンション	-11.5295
祭神	-11.5296
射程	-11.5297
アドルフ	-11.5297
西鉄	-11.5298
と推定されている	-11.5298
ボスニア	-11.5299
▁白	-11.5299
アムステルダム	-11.53
社から	-11.5301
ラング	-11.5303
担当者	-11.5304
ada	-11.5306
主翼	-11.5307
くなった	-11.5307
殿堂入り	-11.531
幌	-11.5311
н	-11.5311
牌	-11.5311
かせる	-11.5312
に分け	-11.5312
元来	-11.5312
メイド	-11.5313
白石	-11.5316
スタメン	-11.5316
インストール	-11.5317
マイアミ	-11.5317
スクエア	-11.5317
はじめて	-11.5317
位を記録	-11.5317
に興味	-11.5318
侯爵	-11.5319
単体	-11.5319
台北	-11.5319
採択	-11.5319
リントン	-11.5321
癖	-11.5321
大半が	-11.5321
に死去した	-11.5323
ものとなっている	-11.5323
ator	-11.5324
似た	-11.5324
踏切	-11.5327
部員	-11.5327
駐在	-11.5328
ソ連軍	-11.5328
アンドリュー	-11.5328
的にも	-11.5329
▁同月	-11.5329
穀物	-11.5329
に入れ	-11.5331
を制し	-11.5331
not	-11.5332
タバコ	-11.5332
発車	-11.5332
行われており	-11.5333
煙突	-11.5333
経済学者	-11.5333
内田	-11.5333
方式で	-11.5335
フェロー	-11.5335
自由主義	-11.5335
サッ	-11.5336
トイ	-11.5336
誘致	-11.5337
仕掛け	-11.5338
ios	-11.5338
オッ	-11.5341
usa	-11.5341
拡散	-11.5342
カウンター	-11.5344
熙	-11.5344
大輔	-11.5347
、1933	-11.5347
のうちに	-11.5347
企	-11.5352
募	-11.5354
魯	-11.5355
の始まり	-11.5355
に失敗した	-11.5355
▁近年では	-11.5357
ウマ	-11.5357
フレデリック	-11.5357
mal	-11.5359
研究室	-11.5359
めん	-11.536
die	-11.5361
▁字は	-11.5362
された後	-11.5363
年の間	-11.5363
初日	-11.5364
奇跡	-11.5365
宝暦	-11.5366
揺	-11.5367
ピル	-11.5368
マネ	-11.5368
‐	-11.5368
スウェーデンの	-11.5368
"-	-11.5369
戻す	-11.5372
セリ	-11.5374
を発行し	-11.5374
炭鉱	-11.5374
金剛	-11.5375
を拒否した	-11.5375
明日	-11.5376
モントリオール	-11.5376
cas	-11.5376
兵を	-11.5376
カニ	-11.5376
ライト級	-11.5376
アルバニア	-11.538
ことが判明した	-11.538
途上	-11.5381
湧	-11.5382
を演じる	-11.5382
ney	-11.5383
北九州	-11.5384
、1935	-11.5385
偉	-11.5386
霞	-11.5386
▁同じく	-11.5386
行政区	-11.5387
出している	-11.5387
節の	-11.5387
を終了した	-11.5388
を差し	-11.5388
仕上げ	-11.5388
が導入された	-11.5388
free	-11.5389
sky	-11.539
融資	-11.539
初年度	-11.539
主砲	-11.539
テュ	-11.5392
位置づけられ	-11.5392
採用されている	-11.5393
に行われる	-11.5394
型式	-11.5394
studio	-11.5394
加盟国	-11.5395
落とし	-11.5395
尽力	-11.5396
に変更され	-11.5396
峯	-11.5396
傾向がある	-11.5397
を否定し	-11.5399
塵	-11.5399
1850	-11.5399
ical	-11.5401
湾岸	-11.5401
やる	-11.5403
ひがし	-11.5404
を通過し	-11.5404
チェンジ	-11.5405
表面に	-11.5406
▁今日	-11.5406
歳没	-11.5406
生地	-11.5406
を廃止し	-11.5406
左岸	-11.5407
それ以外	-11.5408
武道	-11.5408
カルチャー	-11.5411
総長	-11.5411
切手	-11.5413
を実施する	-11.5413
の指示	-11.5414
排気	-11.5414
摂津	-11.5414
ホウ	-11.5414
エレクトリック	-11.5415
デヴィッド	-11.5415
ヤマト	-11.5416
この時期	-11.5416
地質	-11.5418
などによる	-11.542
示されている	-11.542
bf	-11.542
最速	-11.542
stra	-11.5421
ヘビー級王座	-11.5422
を継ぐ	-11.5423
祝日	-11.5423
kin	-11.5424
年公開の	-11.5424
▁nhk	-11.5425
町長	-11.5425
中国共産党	-11.5425
退学	-11.5428
愛国	-11.5428
ぐる	-11.5429
召集	-11.5429
展開する	-11.543
ジェイムズ	-11.543
イグ	-11.5431
演出家	-11.5432
内容が	-11.5432
風俗	-11.5434
が担当した	-11.5435
作成された	-11.5435
と呼ばれるようになった	-11.5436
交差	-11.5436
ペドロ	-11.5436
使われる	-11.5437
会派	-11.5438
ティーン	-11.5438
歴史的な	-11.5439
コラ	-11.5439
に代表される	-11.5439
那須	-11.5439
学生時代	-11.544
クモ	-11.544
喰	-11.5441
▁new	-11.5441
避	-11.5441
漂	-11.5442
е	-11.5444
作られ	-11.5444
バーデン	-11.5444
下野	-11.5445
重臣	-11.5445
sw	-11.5445
エチオピア	-11.5446
本堂	-11.5447
はるかに	-11.5448
time	-11.5448
by	-11.5448
武将	-11.5451
にあたった	-11.5452
値を	-11.5452
マナ	-11.5452
鋳	-11.5453
促	-11.5453
バンタム級	-11.5454
р	-11.5457
に任命	-11.5458
▁この年は	-11.5459
ホーン	-11.5459
選帝侯	-11.5459
▁古代	-11.546
警官	-11.5461
発展し	-11.5461
と違い	-11.5461
高性能	-11.5462
せば	-11.5462
松浦	-11.5464
ないよう	-11.5464
クルーズ	-11.5464
歩兵第	-11.5464
進路	-11.5465
死の	-11.5466
源流	-11.5466
定め	-11.5468
寄稿	-11.5468
任官	-11.5468
エイト	-11.5468
好意	-11.5468
造形	-11.5469
混雑	-11.5471
鳥居	-11.5474
うえで	-11.5474
話が	-11.5474
勧	-11.5478
構え	-11.5478
戦時中	-11.5481
遅延	-11.5481
以南	-11.5482
聖母	-11.5482
ソナタ	-11.5483
アレクサンダー	-11.5483
nec	-11.5483
が置かれた	-11.5484
換装	-11.5484
幸せ	-11.5485
説明する	-11.5485
チーズ	-11.5486
伊賀	-11.5486
の大部分は	-11.5486
エンジンを	-11.5486
センチ	-11.5487
誰か	-11.5487
それ以上	-11.5487
日本大学	-11.5488
してしまい	-11.5488
者も	-11.5489
改宗	-11.5489
プトン	-11.5489
を製造	-11.5489
をなす	-11.549
近年は	-11.5491
認	-11.5491
文部省	-11.5493
▁can	-11.5497
の主力	-11.5498
クライアント	-11.5499
アーツ	-11.55
』・『	-11.55
者もいる	-11.5501
ブラウザ	-11.5501
嚢	-11.5501
終了後に	-11.5503
最近では	-11.5504
有限会社	-11.5505
亜種	-11.5507
生育	-11.5507
知的	-11.5507
ピク	-11.5508
を継承した	-11.5509
マイクロソフト	-11.551
党員	-11.551
を実施し	-11.551
デビューを果たした	-11.551
の良い	-11.5511
国勢調査	-11.5511
安藤	-11.5512
引退後	-11.5513
book	-11.5514
カタログ	-11.5515
ブリン	-11.5516
石原	-11.5517
ib	-11.5518
ことはできなかった	-11.5519
にかけ	-11.552
を食べ	-11.5521
発掘調査	-11.5522
シム	-11.5522
を想定し	-11.5522
を記録する	-11.5523
会社が	-11.5523
年前の	-11.5524
としても活動	-11.5524
の名称で	-11.5524
企業が	-11.5524
したことにより	-11.5525
精神的	-11.5525
が進んだ	-11.5525
山梨	-11.5526
を開発した	-11.5528
シャトル	-11.5528
暴行	-11.5528
ウルス	-11.5529
作家の	-11.553
の大半は	-11.553
に留まり	-11.5531
▁これに	-11.5532
閑	-11.5533
xx	-11.5533
ウイング	-11.5534
japan	-11.5534
参議院議員	-11.5534
知られており	-11.5534
の登場人物	-11.5534
喜劇	-11.5534
跡地に	-11.5534
チョン	-11.5537
宰相	-11.5539
警報	-11.554
決勝では	-11.554
ラテン	-11.5541
イギリス人	-11.5541
札幌市	-11.5541
痕跡	-11.5542
ホスト	-11.5544
を完全に	-11.5545
の主題歌	-11.5545
さなかった	-11.5545
二代目	-11.5545
曹操	-11.5545
を遂げ	-11.5547
日本語版	-11.5548
ことだった	-11.5548
強盗	-11.5549
の方針	-11.5549
月曜日	-11.555
疑惑	-11.5552
ori	-11.5552
生体	-11.5552
ひこ	-11.5553
に定着	-11.5555
に携わる	-11.5555
を選んだ	-11.5555
世界各国	-11.5555
されるまで	-11.5556
そく	-11.5556
に合わせ	-11.5558
記載する	-11.5558
巴	-11.556
近縁	-11.556
一宮	-11.556
徴兵	-11.556
につれ	-11.5561
を守るため	-11.5561
博士課程	-11.5562
駄	-11.5563
ついて	-11.5563
パラメータ	-11.5564
転送	-11.5566
親会社	-11.5566
の判断	-11.5567
記した	-11.5567
クロン	-11.5567
頁	-11.5567
蒼	-11.5568
暴走	-11.5568
役を	-11.5568
、1932	-11.5569
を発し	-11.5569
も多数	-11.5569
償	-11.5569
湿地	-11.5571
管理者	-11.5571
ばね	-11.5572
右岸	-11.5574
三角形	-11.5576
方面から	-11.5576
汎用	-11.5577
水産	-11.5577
青色	-11.5579
められ	-11.5579
王家	-11.5579
塗り	-11.5581
たくさん	-11.5581
はわずか	-11.5581
構造は	-11.5581
異なった	-11.5582
収束	-11.5582
発電機	-11.5585
▁監督は	-11.5586
ケルン	-11.5586
冬の	-11.5588
例もある	-11.5588
に拠れば	-11.5589
中原	-11.5589
原子力発電所	-11.5589
スティー	-11.559
アイスランド	-11.5593
グローブ	-11.5593
eng	-11.5594
が発見され	-11.5595
宮内	-11.5597
こい	-11.5597
田舎	-11.5599
上にある	-11.5599
などでも	-11.56
エーカー	-11.5602
を得ている	-11.5602
路線が	-11.5603
セントルイス	-11.5603
をかける	-11.5604
混同	-11.5604
3.0	-11.5604
に就く	-11.5604
接続する	-11.5605
負荷	-11.5605
バグ	-11.5606
トルク	-11.5606
低減	-11.5606
場合でも	-11.5607
古巣	-11.5608
暮	-11.5608
た際に	-11.5609
凍結	-11.561
模	-11.561
半導体	-11.5613
世界各地	-11.5613
▁兄	-11.5614
指向	-11.5614
複製	-11.5614
余裕	-11.5615
撫	-11.5615
radio	-11.5617
を展開する	-11.5617
震災	-11.5618
喧嘩	-11.5618
大都市	-11.5619
知り合い	-11.5619
は当時の	-11.5619
実に	-11.5619
膨	-11.562
動向	-11.5621
で発売された	-11.5621
たった	-11.5622
スロット	-11.5623
ターズ	-11.5623
20%	-11.5624
の町名	-11.5626
普	-11.5626
文久	-11.5626
俳句	-11.5626
小田急	-11.5627
美子	-11.5628
part	-11.5629
のほとんどは	-11.5629
梅田	-11.5629
器具	-11.5629
位を獲得した	-11.563
を考慮し	-11.5632
原発	-11.5632
ユニフォーム	-11.5632
放った	-11.5632
▁one	-11.5633
に着手	-11.5633
植え	-11.5634
ハイブリッド	-11.5634
円盤	-11.5634
を結んだ	-11.5636
五十	-11.5636
日本書紀	-11.5637
新曲	-11.5637
ことが発表された	-11.5637
塩基	-11.5637
月末に	-11.5638
ある日	-11.564
ニシ	-11.5642
乗用車	-11.5642
優勢	-11.5643
フォト	-11.5644
病死	-11.5649
たとえ	-11.565
島は	-11.565
樺太	-11.5651
細かい	-11.5651
dan	-11.5651
地方裁判所	-11.5652
を帯び	-11.5653
6,000	-11.5654
仁親王	-11.5655
三大	-11.5655
レック	-11.5655
対応する	-11.5656
傘	-11.5657
が最初	-11.5657
駅伝	-11.5659
▁母は	-11.566
メリー	-11.5661
電灯	-11.5663
mas	-11.5664
無所属	-11.5666
誇り	-11.5666
が入った	-11.5666
を仕掛け	-11.5666
島田	-11.5668
リッ	-11.5668
造られた	-11.567
スティーブン	-11.5671
sy	-11.5671
的存在	-11.5672
鴻	-11.5674
ゲリラ	-11.5674
▁per	-11.5676
運行している	-11.5676
ホーク	-11.5677
ハワード	-11.5678
app	-11.5679
幼い	-11.568
だし	-11.568
を試みた	-11.5681
あきら	-11.5681
者や	-11.5682
既存	-11.5682
度目	-11.5683
帰った	-11.5683
トレイン	-11.5684
ハット	-11.5684
要員	-11.5684
せられた	-11.5684
語は	-11.5685
ニンテンドー	-11.5685
落とした	-11.5686
増殖	-11.5686
衰え	-11.5688
鋳造	-11.5689
依然として	-11.5689
○○	-11.5691
代表者	-11.5691
与え	-11.5691
old	-11.5692
育つ	-11.5692
シーズン終了後	-11.5693
腹部	-11.5693
中枢	-11.5694
互換性	-11.5694
吊り	-11.5695
ヒュ	-11.5697
一度も	-11.5698
ire	-11.5698
に於いて	-11.5698
泳	-11.5699
とされるが	-11.5699
は自分の	-11.57
と推定される	-11.57
ペンシルベニア州	-11.5701
の必要性	-11.5702
楚	-11.5704
ルネサンス	-11.5704
民放	-11.5706
450	-11.5706
川が	-11.5706
mus	-11.5706
抽象	-11.5707
カンボジア	-11.5707
集結	-11.5707
あわせ	-11.5707
看	-11.5708
を奪取	-11.5708
の法則	-11.5711
おさ	-11.5711
らによって	-11.5712
ヨーゼフ	-11.5714
を持っており	-11.5714
▁time	-11.5715
添加	-11.5716
ジョニー	-11.5717
npb	-11.5718
幕下	-11.572
ものも	-11.572
万部	-11.572
▁1910	-11.572
島町	-11.5722
航空隊	-11.5722
偶	-11.5724
し始めた	-11.5724
問い	-11.5725
富田	-11.5726
を断念	-11.5727
旋律	-11.5727
意欲	-11.5728
聖人	-11.5728
の一人である	-11.5728
を飾った	-11.5729
倍の	-11.5729
ぱ	-11.573
構造物	-11.5732
に出た	-11.5733
諦め	-11.5733
▁wi	-11.5733
嘘	-11.5733
御用	-11.5734
に接し	-11.5735
東武	-11.5735
三田	-11.5737
ろうと	-11.5739
公開されている	-11.574
開発者	-11.574
を破壊し	-11.5743
の支配下	-11.5743
在籍した	-11.5744
圧倒的な	-11.5745
解説する	-11.5746
gal	-11.5746
自分を	-11.5746
ディック	-11.5747
受託	-11.5751
ミア	-11.5753
ることもある	-11.5754
尚書	-11.5756
クレア	-11.5756
ければ	-11.5757
白河	-11.5757
始まる	-11.5757
歪	-11.5758
パナマ	-11.5759
遺物	-11.576
行って	-11.5762
られず	-11.5762
到	-11.5764
江戸時代に	-11.5766
ようになっていた	-11.5767
戦果	-11.5767
納め	-11.5769
に設置されている	-11.5769
の意思	-11.5769
のインタビューで	-11.5771
とされており	-11.5773
に始まる	-11.5773
の末に	-11.5774
しお	-11.5774
と称して	-11.5774
南下	-11.5776
奨	-11.5776
と名付けられた	-11.5781
打たれ	-11.5782
院長	-11.5784
▁part	-11.5784
野球場	-11.5785
原爆	-11.5786
現在に至る	-11.5786
見学	-11.5786
bro	-11.5786
dos	-11.5786
準々決勝	-11.5788
敗と	-11.5789
〇	-11.579
香り	-11.579
湘南	-11.5791
ニックネーム	-11.5791
文化放送	-11.5791
ざき	-11.5791
ことが可能	-11.5792
弘前	-11.5792
漏れ	-11.5794
で優勝した	-11.5795
ノミネート	-11.5796
電機	-11.5797
荒廃	-11.5798
分配	-11.5798
歴史上	-11.5798
と表記される	-11.5799
演算	-11.5801
直流	-11.5804
ben	-11.5805
にもなった	-11.5806
を教え	-11.5806
を破って	-11.5807
続行	-11.5808
稲荷	-11.5808
興行収入	-11.5808
に襲われ	-11.5808
世界初の	-11.5808
を行わ	-11.5809
浴び	-11.581
big	-11.581
に限り	-11.581
を模した	-11.5811
運行する	-11.5812
引き受け	-11.5815
沸	-11.5815
本機	-11.5815
野球部	-11.5818
宝石	-11.5819
百合	-11.5821
ビック	-11.5821
平地	-11.5822
▁近年の	-11.5822
宣告	-11.5824
工芸	-11.5824
を入れる	-11.5824
シアン	-11.5825
出身地	-11.5825
火器	-11.5825
萬	-11.5826
称賛	-11.5826
平定	-11.5827
1.4	-11.5827
無償	-11.5831
デア	-11.5831
▁ここ	-11.5831
収録された	-11.5833
sis	-11.5834
民兵	-11.5835
局所	-11.5835
突起	-11.5835
ik	-11.5837
格納	-11.5837
などを歴任	-11.5838
ホルン	-11.5838
けば	-11.5838
db	-11.584
押さえ	-11.584
キングス	-11.5843
本山	-11.5844
シオン	-11.5845
小児	-11.5846
の間では	-11.5847
平原	-11.5847
sv	-11.5848
の提供	-11.5849
する者	-11.5849
手段として	-11.585
des	-11.5851
選挙では	-11.5852
※	-11.5852
の成功	-11.5852
どおり	-11.5852
mhz	-11.5853
自由な	-11.5853
副作用	-11.5855
リーフ	-11.5855
自宅で	-11.5857
ジョイ	-11.5857
▁父親は	-11.5857
ネック	-11.5858
進められ	-11.586
することなく	-11.586
を前に	-11.5862
が約	-11.5862
ナイフ	-11.5862
日までに	-11.5863
以下に	-11.5863
対馬	-11.5864
普通列車	-11.5864
勝った	-11.5865
納入	-11.5866
取り入れ	-11.5866
長時間	-11.5866
と考えられ	-11.5868
即位した	-11.5868
シュト	-11.5869
の北側	-11.5869
最盛期	-11.5869
▁des	-11.5871
を刊行	-11.5872
真珠湾	-11.5872
工房	-11.5874
日本国外	-11.5874
西区	-11.5874
インテル	-11.5874
ータ	-11.5875
彼女を	-11.5875
▁元々	-11.5876
退社	-11.5876
を引き継いだ	-11.5877
記されている	-11.5877
放送され	-11.5878
発見されている	-11.5881
商事	-11.5882
ax	-11.5882
ベネズエラ	-11.5883
数回	-11.5885
誕生日	-11.5889
当社	-11.5889
日本共産党	-11.589
堤防	-11.589
思う	-11.5891
などである	-11.5892
されたり	-11.5892
作られている	-11.5893
乗車人員	-11.5893
エンターテイメント	-11.5894
曖昧	-11.5894
祈り	-11.5894
拠点として	-11.5894
▁ne	-11.5899
、1934	-11.59
トランプ	-11.59
迎えた	-11.59
音が	-11.59
日本の漫画家	-11.59
得点を記録	-11.5901
rea	-11.5901
適用される	-11.5901
くなり	-11.5901
市場で	-11.5902
ケイン	-11.5902
受け継がれ	-11.5902
膨大な	-11.5902
が使用されている	-11.5903
例がある	-11.5903
平方メートル	-11.5903
5.5	-11.5903
熱心	-11.5904
の続編	-11.5904
と並ぶ	-11.5905
制作の	-11.5905
揺れ	-11.5905
河野	-11.5906
パトリック	-11.5906
全英	-11.5907
終え	-11.5908
城壁	-11.5908
に相当	-11.5908
を任され	-11.5909
▁ga	-11.5909
が生まれ	-11.5909
巡礼	-11.5909
准教授	-11.5911
グループは	-11.5912
ニュータウン	-11.5912
が主催する	-11.5913
法則	-11.5913
袁	-11.5913
客員教授	-11.5913
調和	-11.5914
▁ニューヨーク	-11.5915
レポート	-11.5916
吹き替え	-11.5917
ory	-11.5918
一般社団法人	-11.5919
ゆかり	-11.592
暗い	-11.5921
▁cm	-11.5922
1848	-11.5922
ピカ	-11.5923
積極的な	-11.5926
今井	-11.5926
頸	-11.5927
サンクトペテルブルク	-11.5927
プロトコル	-11.5927
ann	-11.5929
圓	-11.593
焦点	-11.593
背後	-11.593
そうな	-11.5931
一般化	-11.5932
回線	-11.5934
メイト	-11.5935
失脚	-11.5935
となること	-11.5936
▁第二次世界大戦後	-11.5936
スパルタ	-11.5937
通報	-11.5938
として扱われ	-11.5938
西欧	-11.5939
年夏に	-11.5939
を購入し	-11.5939
リアルタイム	-11.5939
ものとなった	-11.594
ミック	-11.5942
山麓	-11.5942
柔軟	-11.5944
という意味で	-11.5944
地上駅	-11.5945
毎日新聞	-11.5946
哺乳類	-11.5946
休暇	-11.5946
でしょう	-11.5947
テレビジョン	-11.5948
バラエティ	-11.5948
!!」	-11.5948
自分は	-11.595
ケリー	-11.595
苦労	-11.595
ダイヤ改正	-11.5951
▁近年は	-11.5952
オーク	-11.5952
に際しては	-11.5954
川上	-11.5955
遮断	-11.5955
トキ	-11.5955
sb	-11.5956
幹線	-11.5956
に属した	-11.5956
されるため	-11.5958
ゥ	-11.596
世紀前半	-11.596
こんな	-11.596
ッテ	-11.5961
争う	-11.5961
ルドルフ	-11.5961
レコード会社	-11.5962
時まで	-11.5962
に統合され	-11.5965
不調	-11.5966
で生まれる	-11.5966
デイリー	-11.5968
を倒し	-11.5969
総統	-11.597
をやめ	-11.597
ヨシ	-11.5972
に加わり	-11.5974
としてデビュー	-11.5975
コラボ	-11.5975
イリ	-11.5975
体長	-11.5975
フェニックス	-11.5976
故に	-11.5978
肖像画	-11.5978
を積極的に	-11.5978
しよう	-11.598
sur	-11.5981
蔵書	-11.5982
鐵	-11.5982
発売され	-11.5984
古来	-11.5984
行為を	-11.5984
ひさ	-11.5984
2.7	-11.5986
デリ	-11.5986
失敗した	-11.5986
135	-11.5987
水が	-11.5987
釈迦	-11.5988
鼓	-11.5989
人だった	-11.599
和名	-11.5991
2-1	-11.5991
犬種	-11.5991
かを	-11.5991
グラント	-11.5992
にともない	-11.5992
ウェー	-11.5994
版画	-11.5994
参謀長	-11.5995
区から	-11.5996
制圧	-11.5998
餅	-11.5999
維新	-11.5999
輸送船	-11.6001
を担当していた	-11.6002
盛んに	-11.6002
大日本	-11.6002
派遣した	-11.6003
並行	-11.6004
擬	-11.6004
入植	-11.6007
national	-11.6007
に立った	-11.6008
罪で	-11.6009
wr	-11.6011
するのが	-11.6011
ストローク	-11.6012
に抜擢され	-11.6013
つぶ	-11.6015
正室	-11.6016
集まって	-11.6016
直す	-11.6017
迫る	-11.6018
と異なる	-11.6018
wii	-11.6018
を落とし	-11.6019
帖	-11.6021
上皇	-11.6021
穀	-11.6021
レスラー	-11.6022
ができた	-11.6023
参画	-11.6023
設置されている	-11.6023
伝えた	-11.6023
留学生	-11.6024
に至って	-11.6024
▁具体的には	-11.6025
による日本の漫画作品	-11.6029
障	-11.6029
▁star	-11.603
封印	-11.6031
pal	-11.6033
私たち	-11.6034
pm	-11.6034
の軍人	-11.6034
濱	-11.6035
扶	-11.6037
ラテン文字	-11.6039
川は	-11.6039
降水量	-11.604
幻想	-11.6043
試合出場	-11.6044
ye	-11.6045
順調に	-11.6047
大森	-11.605
ダンジョン	-11.6051
調査では	-11.6052
それらを	-11.6053
高雄	-11.6054
sol	-11.6055
ele	-11.6055
ルーツ	-11.6055
生殖	-11.6057
据え	-11.6057
のみであった	-11.6062
戸田	-11.6063
多様体	-11.6063
帰る	-11.6063
カルロ	-11.6064
を開く	-11.6069
忘れ	-11.6069
市生まれ	-11.607
など多くの	-11.607
厚生	-11.607
ミラ	-11.6072
染色体	-11.6073
上げられ	-11.6074
イヤ	-11.6074
tive	-11.6075
好成績	-11.6077
抱え	-11.6078
が参加した	-11.6078
鶴見	-11.608
対話	-11.608
止ま	-11.608
対潜	-11.6081
始まり	-11.6084
▁全国	-11.6085
提供する	-11.6086
cent	-11.6087
をしており	-11.6087
月までに	-11.6088
バスターミナル	-11.609
十字軍	-11.609
家具	-11.609
全体に	-11.6091
理由から	-11.6091
射殺	-11.6091
初出	-11.6092
伸びる	-11.6092
ヴル	-11.6092
正式名称	-11.6092
てきたが	-11.6093
スロバキア	-11.6093
ミッ	-11.6094
公卿	-11.6094
越え	-11.6094
から始まる	-11.6095
、1928	-11.6096
ロル	-11.6096
通った	-11.6097
に含まれ	-11.6097
グラフィ	-11.6097
オハイオ州	-11.6097
改名	-11.6098
合わせた	-11.6099
日露戦争	-11.6099
日本シリーズ	-11.6099
を取得し	-11.61
ima	-11.6103
処刑された	-11.6104
倒し	-11.6106
塩化	-11.6107
ピック	-11.6107
の遺体	-11.6109
自身初の	-11.611
挙げ	-11.611
が低く	-11.6111
▁en	-11.6113
無罪	-11.6114
佐伯	-11.6115
資材	-11.6115
ヘア	-11.6116
を探す	-11.6117
開始した	-11.6118
tom	-11.612
ゅ	-11.612
叩	-11.6121
民法	-11.6122
で敗れ	-11.6122
ky	-11.6123
貰	-11.6124
占	-11.6125
四つ	-11.6125
tis	-11.6126
駐留	-11.6126
展望	-11.6127
ウェイン	-11.6127
経済成長	-11.6128
現在地	-11.6128
理学	-11.6129
簡単な	-11.6129
に滞在し	-11.613
東北地方	-11.613
ように見える	-11.6131
新潟市	-11.6131
バター	-11.6131
を行うため	-11.6131
主人	-11.6132
を手掛けた	-11.6133
改変	-11.6134
土地を	-11.6134
破壊され	-11.6134
広まった	-11.6135
改題	-11.6135
に落ち	-11.6136
プログラミング	-11.6137
の重要性	-11.6137
荘園	-11.6138
ヶ月間	-11.6138
働	-11.6138
慣れ	-11.6139
cv	-11.6139
いかなる	-11.614
周辺に	-11.614
村は	-11.614
バッグ	-11.6141
ママ	-11.6142
に入ってから	-11.6142
に従軍	-11.6142
劇場で	-11.6142
採集	-11.6143
ヴァルト	-11.6143
ていたという	-11.6144
其	-11.6144
病院で	-11.6144
が大幅に	-11.6144
、1929	-11.6145
ギャング	-11.6145
現地の	-11.6146
今日では	-11.6146
人の子供	-11.6148
から南	-11.6148
フス	-11.6148
の指揮下	-11.6148
宛	-11.6149
分断	-11.6149
を除いた	-11.615
▁しかしこの	-11.615
黒色	-11.615
が使われている	-11.615
そこには	-11.6151
はやや	-11.6153
つる	-11.6155
ようだ	-11.6155
tes	-11.6155
去った	-11.6158
エルサレム	-11.6158
立案	-11.6159
国々	-11.616
を増やし	-11.616
実体	-11.6161
退却	-11.6162
考えた	-11.6162
シールド	-11.6162
領内	-11.6163
卑	-11.6164
箕	-11.6164
リボン	-11.6164
不法	-11.6166
なければならなかった	-11.6166
多項式	-11.6166
が担当している	-11.6167
下院議員	-11.6167
撮影した	-11.6167
を開発し	-11.6168
芸能人	-11.6168
の中で最も	-11.6168
フック	-11.6169
不詳	-11.6169
rie	-11.6169
不可欠	-11.617
用ソフト	-11.6171
給与	-11.6171
幼虫	-11.6173
曳	-11.6175
判定勝ち	-11.6176
内藤	-11.6177
考えられ	-11.6177
本質	-11.6178
信託	-11.6179
対外	-11.6179
に分けて	-11.6179
に反対し	-11.618
vin	-11.618
次官	-11.6182
南北朝時代	-11.6183
▁am	-11.6185
内部の	-11.6185
隋	-11.6186
前橋	-11.6187
悦	-11.6189
東ドイツ	-11.6189
に到着	-11.6189
と出会い	-11.619
に進出した	-11.619
への出演	-11.619
表彰台	-11.619
出演していた	-11.6191
▁1913	-11.6192
出来ず	-11.6192
物理的	-11.6193
マーン	-11.6195
務めた	-11.6195
として再	-11.6196
日本の女優	-11.6197
ゴシック	-11.6197
実質的な	-11.6197
栃木	-11.6197
撰	-11.62
с	-11.62
選手権では	-11.6201
本部長	-11.6201
▁森	-11.6202
、1931	-11.6202
ツェン	-11.6203
執筆した	-11.6203
vis	-11.6205
年代後半に	-11.6209
に属す	-11.6209
年代後半から	-11.621
世界的な	-11.621
本家	-11.6211
敗れた	-11.6212
エストニア	-11.6212
ディビシオン	-11.6212
研究家	-11.6213
会議員	-11.6214
定めた	-11.6214
取って	-11.6214
男は	-11.6215
に設立された	-11.6218
nm	-11.622
原作者	-11.6222
を構成し	-11.6222
ジャーナル	-11.6222
真理	-11.6223
の成績を残した	-11.6224
を建設し	-11.6224
北条氏	-11.6224
青少年	-11.6224
sn	-11.6225
ランナー	-11.6225
緑地	-11.6225
常時	-11.6225
着任	-11.6225
収蔵	-11.6226
ッジ	-11.6226
断片	-11.6226
ないという	-11.6226
秋に	-11.6227
を決定	-11.6228
ティエ	-11.623
▁ad	-11.6231
サポーター	-11.6231
拘	-11.6231
木曜日	-11.6232
アンダーソン	-11.6233
の廃止	-11.6233
が認められる	-11.6234
フランシスコ	-11.6235
レギュラー出演	-11.6236
御殿	-11.6236
流派	-11.624
cat	-11.6241
民俗	-11.6241
チオ	-11.6243
フェザー級	-11.6243
前部	-11.6243
与える	-11.6245
学派	-11.6245
白山	-11.6245
面会	-11.6246
1・2	-11.6246
109	-11.6246
をリリースした	-11.6248
儀礼	-11.6248
アダルト	-11.6249
きわめて	-11.6251
ワールドシリーズ	-11.6251
トレー	-11.6253
が再び	-11.6254
普遍	-11.6254
モロッコ	-11.6254
ach	-11.6255
倫	-11.6255
拍子	-11.6256
王族	-11.6256
たまま	-11.6257
が採用され	-11.6259
岩手	-11.6259
館長	-11.626
製造業	-11.6261
ぐち	-11.6261
最新の	-11.6262
タッグ王座	-11.6262
開いた	-11.6263
ジミー	-11.6264
を卒業した	-11.6265
上部に	-11.6266
で使用される	-11.6266
1.1	-11.6266
召	-11.6267
を付けた	-11.6267
かという	-11.627
も行われた	-11.6272
sim	-11.6272
八郎	-11.6274
使用可能	-11.6275
ジェネ	-11.6276
▁そのうち	-11.6276
ジャイアンツ	-11.6277
応答	-11.6278
▁1911	-11.6279
難波	-11.6279
桜井	-11.6279
月に行われた	-11.6279
舞鶴	-11.6279
los	-11.6279
仮面	-11.628
小銃	-11.628
じる	-11.6281
android	-11.6283
▁“	-11.6285
園芸	-11.6285
メディ	-11.6285
テナント	-11.6287
ビルマ	-11.6288
スティーヴン	-11.6288
アカウント	-11.6288
調子	-11.6288
アラビア	-11.6289
gin	-11.6289
足立	-11.6289
直結	-11.6291
遂に	-11.6291
織物	-11.6292
持っている	-11.6293
タイガース	-11.6294
成績を残し	-11.6297
重ね	-11.6298
したほか	-11.6299
単発	-11.63
ミラン	-11.63
を行っており	-11.6301
1.3	-11.6303
を借り	-11.6303
理科	-11.6304
たとき	-11.6304
を提案した	-11.6305
が公開された	-11.6305
漫画作品	-11.6307
況	-11.6307
エージェント	-11.6308
ジーン	-11.6309
大阪市立	-11.6309
割り当て	-11.6309
フランクリン	-11.631
それから	-11.631
協同組合	-11.6311
慕	-11.6311
アクセント	-11.6311
生産量	-11.6315
宮本	-11.6315
参拝	-11.6315
チカ	-11.6316
支え	-11.6316
を満たし	-11.6316
タイアップ	-11.6317
広さ	-11.6317
ベット	-11.6318
二等	-11.6318
外科	-11.6318
ホームズ	-11.6318
認められている	-11.6319
創設者	-11.632
格子	-11.632
天文学者	-11.6324
▁詳細は	-11.6325
に住んでいた	-11.6326
を救う	-11.6326
問われ	-11.6326
年に日本	-11.6327
本郷	-11.6327
http	-11.6329
消失	-11.633
基の	-11.6331
開催され	-11.6332
グン	-11.6333
かつて存在した	-11.6333
ーニャ	-11.6335
歴史的に	-11.6335
ころから	-11.6337
することが発表された	-11.6337
を繰り返す	-11.6337
ull	-11.6337
も同様に	-11.6338
ロビン	-11.634
を兼任	-11.6341
の軍勢	-11.6342
gui	-11.6343
董	-11.6343
詳しい	-11.6343
わかる	-11.6344
怖	-11.6346
プロペラ	-11.6346
に沿った	-11.6346
の為に	-11.6347
を建設した	-11.6347
pat	-11.6348
観戦	-11.6348
挑	-11.6348
カラオケ	-11.6348
車として	-11.6349
が開催され	-11.635
高く評価され	-11.635
汽船	-11.6352
はずの	-11.6353
カンファレンス	-11.6354
じゅ	-11.6354
ペトロ	-11.6355
尊重	-11.6356
レギュラーシーズン	-11.6356
に代わる	-11.6357
取り上げられ	-11.6357
限定で	-11.6357
同番組	-11.6359
が必要な	-11.6359
シミュレーション	-11.6361
日本側	-11.6362
社殿	-11.6363
ッティング	-11.6366
派閥	-11.6368
南は	-11.6369
キッ	-11.6369
に設けられた	-11.6371
火薬	-11.6373
が確認されている	-11.6373
奥州	-11.6374
近似	-11.6375
▁帰国後	-11.6375
でプレーした	-11.6376
本書	-11.6377
sho	-11.6378
人々に	-11.6379
▁up	-11.6379
▁アルバム	-11.6379
となっていたが	-11.638
がち	-11.638
わたし	-11.638
鈴鹿	-11.6381
リーン	-11.6382
関係にある	-11.6382
アワード	-11.6383
加算	-11.6384
iss	-11.6384
立って	-11.6385
可能性が高い	-11.6386
フォワード	-11.6386
キャッチ	-11.6389
上映された	-11.639
持っていた	-11.6391
に特化した	-11.6392
を所有し	-11.6392
日本橋	-11.6392
gro	-11.6393
居城	-11.6394
ッリ	-11.6394
:55	-11.6397
したとされる	-11.6397
ウェルター級	-11.6397
とか	-11.6397
注目を集め	-11.6398
とも言える	-11.64
フアン	-11.6402
[...]
